{
  "version": "1.0",
  "truncation": null,
  "padding": null,
  "added_tokens": [
    {
      "id": 0,
      "content": "[PAD]",
      "single_word": false,
      "lstrip": false,
      "rstrip": false,
      "normalized": false,
      "special": true
    },
    {
      "id": 1,
      "content": "[UNK]",
      "single_word": false,
      "lstrip": false,
      "rstrip": false,
      "normalized": false,
      "special": true
    },
    {
      "id": 2,
      "content": "[CLS]",
      "single_word": false,
      "lstrip": false,
      "rstrip": false,
      "normalized": false,
      "special": true
    },
    {
      "id": 3,
      "content": "<kan_start>",
      "single_word": false,
      "lstrip": false,
      "rstrip": false,
      "normalized": false,
      "special": true
    },
    {
      "id": 4,
      "content": "<tel_start>",
      "single_word": false,
      "lstrip": false,
      "rstrip": false,
      "normalized": false,
      "special": true
    },
    {
      "id": 5,
      "content": "<tam_start>",
      "single_word": false,
      "lstrip": false,
      "rstrip": false,
      "normalized": false,
      "special": true
    },
    {
      "id": 6,
      "content": "<hin_start>",
      "single_word": false,
      "lstrip": false,
      "rstrip": false,
      "normalized": false,
      "special": true
    },
    {
      "id": 7,
      "content": "<kan_end>",
      "single_word": false,
      "lstrip": false,
      "rstrip": false,
      "normalized": false,
      "special": true
    },
    {
      "id": 8,
      "content": "<tel_end>",
      "single_word": false,
      "lstrip": false,
      "rstrip": false,
      "normalized": false,
      "special": true
    },
    {
      "id": 9,
      "content": "<tam_end>",
      "single_word": false,
      "lstrip": false,
      "rstrip": false,
      "normalized": false,
      "special": true
    },
    {
      "id": 10,
      "content": "<hin_end>",
      "single_word": false,
      "lstrip": false,
      "rstrip": false,
      "normalized": false,
      "special": true
    }
  ],
  "normalizer": null,
  "pre_tokenizer": {
    "type": "UnicodeScripts"
  },
  "post_processor": null,
  "decoder": null,
  "model": {
    "type": "BPE",
    "dropout": null,
    "unk_token": "[UNK]",
    "continuing_subword_prefix": null,
    "end_of_word_suffix": null,
    "fuse_unk": false,
    "byte_fallback": false,
    "ignore_merges": false,
    "vocab": {
      "[PAD]": 0,
      "[UNK]": 1,
      "[CLS]": 2,
      "<kan_start>": 3,
      "<tel_start>": 4,
      "<tam_start>": 5,
      "<hin_start>": 6,
      "<kan_end>": 7,
      "<tel_end>": 8,
      "<tam_end>": 9,
      "<hin_end>": 10,
      "\n": 11,
      "\r": 12,
      " ": 13,
      "!": 14,
      "#": 15,
      "$": 16,
      "%": 17,
      "&": 18,
      "*": 19,
      "+": 20,
      ",": 21,
      ".": 22,
      "/": 23,
      "0": 24,
      "1": 25,
      "2": 26,
      "3": 27,
      "4": 28,
      "5": 29,
      "6": 30,
      "7": 31,
      "8": 32,
      "9": 33,
      ":": 34,
      ";": 35,
      "<": 36,
      "=": 37,
      ">": 38,
      "?": 39,
      "@": 40,
      "A": 41,
      "B": 42,
      "C": 43,
      "D": 44,
      "E": 45,
      "F": 46,
      "G": 47,
      "H": 48,
      "I": 49,
      "J": 50,
      "K": 51,
      "L": 52,
      "M": 53,
      "N": 54,
      "O": 55,
      "P": 56,
      "Q": 57,
      "R": 58,
      "S": 59,
      "T": 60,
      "U": 61,
      "V": 62,
      "W": 63,
      "X": 64,
      "Y": 65,
      "Z": 66,
      "\\": 67,
      "^": 68,
      "_": 69,
      "`": 70,
      "a": 71,
      "b": 72,
      "c": 73,
      "d": 74,
      "e": 75,
      "f": 76,
      "g": 77,
      "h": 78,
      "i": 79,
      "j": 80,
      "k": 81,
      "l": 82,
      "m": 83,
      "n": 84,
      "o": 85,
      "p": 86,
      "q": 87,
      "r": 88,
      "s": 89,
      "t": 90,
      "u": 91,
      "v": 92,
      "w": 93,
      "x": 94,
      "y": 95,
      "z": 96,
      "|": 97,
      "~": 98,
      "¡": 99,
      "£": 100,
      "¤": 101,
      "¥": 102,
      "§": 103,
      "¨": 104,
      "©": 105,
      "ª": 106,
      "«": 107,
      "¬": 108,
      "­": 109,
      "®": 110,
      "¯": 111,
      "°": 112,
      "±": 113,
      "²": 114,
      "³": 115,
      "µ": 116,
      "·": 117,
      "¹": 118,
      "º": 119,
      "»": 120,
      "¼": 121,
      "½": 122,
      "¾": 123,
      "¿": 124,
      "À": 125,
      "Á": 126,
      "Â": 127,
      "Ã": 128,
      "Å": 129,
      "Ç": 130,
      "É": 131,
      "Ê": 132,
      "Ë": 133,
      "Ì": 134,
      "Ï": 135,
      "Õ": 136,
      "×": 137,
      "Ø": 138,
      "Û": 139,
      "Ü": 140,
      "à": 141,
      "á": 142,
      "ä": 143,
      "å": 144,
      "æ": 145,
      "ç": 146,
      "é": 147,
      "ì": 148,
      "í": 149,
      "ï": 150,
      "ð": 151,
      "ñ": 152,
      "ö": 153,
      "ø": 154,
      "ù": 155,
      "ú": 156,
      "û": 157,
      "ü": 158,
      "ý": 159,
      "ā": 160,
      "ć": 161,
      "ē": 162,
      "ī": 163,
      "ı": 164,
      "Ņ": 165,
      "ō": 166,
      "œ": 167,
      "š": 168,
      "ǃ": 169,
      "ǔ": 170,
      "ɒ": 171,
      "ə": 172,
      "ɛ": 173,
      "ɪ": 174,
      "ʰ": 175,
      "ʻ": 176,
      "ʼ": 177,
      "ˈ": 178,
      "ˌ": 179,
      "ː": 180,
      "̃": 181,
      "̅": 182,
      "̱": 183,
      "Α": 184,
      "Δ": 185,
      "Μ": 186,
      "Χ": 187,
      "Ψ": 188,
      "Ω": 189,
      "ά": 190,
      "έ": 191,
      "ί": 192,
      "α": 193,
      "β": 194,
      "γ": 195,
      "δ": 196,
      "ε": 197,
      "ζ": 198,
      "η": 199,
      "θ": 200,
      "ι": 201,
      "κ": 202,
      "λ": 203,
      "μ": 204,
      "ν": 205,
      "ο": 206,
      "π": 207,
      "ρ": 208,
      "ς": 209,
      "σ": 210,
      "τ": 211,
      "υ": 212,
      "φ": 213,
      "χ": 214,
      "ω": 215,
      "ό": 216,
      "ώ": 217,
      "ϕ": 218,
      "Ё": 219,
      "А": 220,
      "И": 221,
      "У": 222,
      "а": 223,
      "в": 224,
      "г": 225,
      "д": 226,
      "е": 227,
      "и": 228,
      "к": 229,
      "л": 230,
      "м": 231,
      "н": 232,
      "о": 233,
      "р": 234,
      "с": 235,
      "т": 236,
      "у": 237,
      "ч": 238,
      "ы": 239,
      "я": 240,
      "ї": 241,
      "ּ": 242,
      "ֿ": 243,
      "ׁ": 244,
      "א": 245,
      "ב": 246,
      "ג": 247,
      "ד": 248,
      "ה": 249,
      "ו": 250,
      "ט": 251,
      "י": 252,
      "ל": 253,
      "מ": 254,
      "ן": 255,
      "נ": 256,
      "ע": 257,
      "פ": 258,
      "ץ": 259,
      "צ": 260,
      "ק": 261,
      "ר": 262,
      "ש": 263,
      "ת": 264,
      "آ": 265,
      "ئ": 266,
      "ا": 267,
      "ب": 268,
      "ح": 269,
      "د": 270,
      "ر": 271,
      "ز": 272,
      "س": 273,
      "ش": 274,
      "ل": 275,
      "ن": 276,
      "و": 277,
      "پ": 278,
      "گ": 279,
      "ہ": 280,
      "ی": 281,
      "ँ": 282,
      "ं": 283,
      "ः": 284,
      "अ": 285,
      "आ": 286,
      "इ": 287,
      "ई": 288,
      "उ": 289,
      "ऊ": 290,
      "ऋ": 291,
      "ऍ": 292,
      "ए": 293,
      "ऐ": 294,
      "ऑ": 295,
      "ओ": 296,
      "औ": 297,
      "क": 298,
      "ख": 299,
      "ग": 300,
      "घ": 301,
      "ङ": 302,
      "च": 303,
      "छ": 304,
      "ज": 305,
      "झ": 306,
      "ञ": 307,
      "ट": 308,
      "ठ": 309,
      "ड": 310,
      "ढ": 311,
      "ण": 312,
      "त": 313,
      "थ": 314,
      "द": 315,
      "ध": 316,
      "न": 317,
      "प": 318,
      "फ": 319,
      "ब": 320,
      "भ": 321,
      "म": 322,
      "य": 323,
      "र": 324,
      "ल": 325,
      "ळ": 326,
      "व": 327,
      "श": 328,
      "ष": 329,
      "स": 330,
      "ह": 331,
      "़": 332,
      "ा": 333,
      "ि": 334,
      "ी": 335,
      "ु": 336,
      "ू": 337,
      "ृ": 338,
      "ॅ": 339,
      "ॆ": 340,
      "े": 341,
      "ै": 342,
      "ॉ": 343,
      "ो": 344,
      "ौ": 345,
      "्": 346,
      "।": 347,
      "॥": 348,
      "ঁ": 349,
      "ং": 350,
      "অ": 351,
      "ও": 352,
      "ক": 353,
      "ত": 354,
      "দ": 355,
      "ধ": 356,
      "ন": 357,
      "প": 358,
      "ব": 359,
      "ভ": 360,
      "ম": 361,
      "র": 362,
      "ল": 363,
      "শ": 364,
      "ষ": 365,
      "স": 366,
      "া": 367,
      "ি": 368,
      "ী": 369,
      "্": 370,
      "ਜ": 371,
      "ਧ": 372,
      "ਰ": 373,
      "ਲ": 374,
      "ੰ": 375,
      "ં": 376,
      "અ": 377,
      "ણ": 378,
      "દ": 379,
      "ન": 380,
      "મ": 381,
      "ય": 382,
      "ર": 383,
      "વ": 384,
      "શ": 385,
      "સ": 386,
      "હ": 387,
      "ા": 388,
      "િ": 389,
      "ી": 390,
      "્": 391,
      "ଆ": 392,
      "ଇ": 393,
      "ଉ": 394,
      "ଓ": 395,
      "କ": 396,
      "ଡ": 397,
      "ପ": 398,
      "଼": 399,
      "ି": 400,
      "ஂ": 401,
      "ஃ": 402,
      "அ": 403,
      "ஆ": 404,
      "இ": 405,
      "ஈ": 406,
      "உ": 407,
      "ஊ": 408,
      "எ": 409,
      "ஏ": 410,
      "ஐ": 411,
      "ஒ": 412,
      "ஓ": 413,
      "ஔ": 414,
      "க": 415,
      "ங": 416,
      "ச": 417,
      "ஜ": 418,
      "ஞ": 419,
      "ட": 420,
      "ண": 421,
      "த": 422,
      "ந": 423,
      "ன": 424,
      "ப": 425,
      "ம": 426,
      "ய": 427,
      "ர": 428,
      "ற": 429,
      "ல": 430,
      "ள": 431,
      "ழ": 432,
      "வ": 433,
      "ஷ": 434,
      "ஸ": 435,
      "ஹ": 436,
      "ா": 437,
      "ி": 438,
      "ீ": 439,
      "ு": 440,
      "ூ": 441,
      "௃": 442,
      "ெ": 443,
      "ே": 444,
      "ை": 445,
      "ொ": 446,
      "ோ": 447,
      "ௌ": 448,
      "்": 449,
      "ఁ": 450,
      "ం": 451,
      "ః": 452,
      "అ": 453,
      "ఆ": 454,
      "ఇ": 455,
      "ఈ": 456,
      "ఉ": 457,
      "ఊ": 458,
      "ఋ": 459,
      "ఎ": 460,
      "ఏ": 461,
      "ఐ": 462,
      "ఒ": 463,
      "ఓ": 464,
      "ఔ": 465,
      "క": 466,
      "ఖ": 467,
      "గ": 468,
      "ఘ": 469,
      "ఙ": 470,
      "చ": 471,
      "ఛ": 472,
      "జ": 473,
      "ఝ": 474,
      "ఞ": 475,
      "ట": 476,
      "ఠ": 477,
      "డ": 478,
      "ఢ": 479,
      "ణ": 480,
      "త": 481,
      "థ": 482,
      "ద": 483,
      "ధ": 484,
      "న": 485,
      "ప": 486,
      "ఫ": 487,
      "బ": 488,
      "భ": 489,
      "మ": 490,
      "య": 491,
      "ర": 492,
      "ఱ": 493,
      "ల": 494,
      "ళ": 495,
      "వ": 496,
      "శ": 497,
      "ష": 498,
      "స": 499,
      "హ": 500,
      "఼": 501,
      "ా": 502,
      "ి": 503,
      "ీ": 504,
      "ు": 505,
      "ూ": 506,
      "ృ": 507,
      "ె": 508,
      "ే": 509,
      "ై": 510,
      "ొ": 511,
      "ో": 512,
      "ౌ": 513,
      "్": 514,
      "ಂ": 515,
      "ಃ": 516,
      "ಅ": 517,
      "ಆ": 518,
      "ಇ": 519,
      "ಈ": 520,
      "ಉ": 521,
      "ಊ": 522,
      "ಋ": 523,
      "ಌ": 524,
      "ಎ": 525,
      "ಏ": 526,
      "ಐ": 527,
      "ಒ": 528,
      "ಓ": 529,
      "ಔ": 530,
      "ಕ": 531,
      "ಖ": 532,
      "ಗ": 533,
      "ಘ": 534,
      "ಙ": 535,
      "ಚ": 536,
      "ಛ": 537,
      "ಜ": 538,
      "ಝ": 539,
      "ಞ": 540,
      "ಟ": 541,
      "ಠ": 542,
      "ಡ": 543,
      "ಢ": 544,
      "ಣ": 545,
      "ತ": 546,
      "ಥ": 547,
      "ದ": 548,
      "ಧ": 549,
      "ನ": 550,
      "ಪ": 551,
      "ಫ": 552,
      "ಬ": 553,
      "ಭ": 554,
      "ಮ": 555,
      "ಯ": 556,
      "ರ": 557,
      "ಱ": 558,
      "ಲ": 559,
      "ಳ": 560,
      "ವ": 561,
      "ಶ": 562,
      "ಷ": 563,
      "ಸ": 564,
      "ಹ": 565,
      "಻": 566,
      "಼": 567,
      "ಽ": 568,
      "ಾ": 569,
      "ಿ": 570,
      "ೀ": 571,
      "ು": 572,
      "ೂ": 573,
      "ೃ": 574,
      "ೆ": 575,
      "ೇ": 576,
      "ೈ": 577,
      "ೊ": 578,
      "ೋ": 579,
      "ೌ": 580,
      "್": 581,
      "ೕ": 582,
      "ೖ": 583,
      "ೞ": 584,
      "ೣ": 585,
      "೦": 586,
      "೧": 587,
      "೨": 588,
      "೩": 589,
      "೪": 590,
      "೫": 591,
      "೬": 592,
      "೭": 593,
      "೮": 594,
      "೯": 595,
      "೵": 596,
      "ം": 597,
      "ക": 598,
      "ഥ": 599,
      "മ": 600,
      "യ": 601,
      "ല": 602,
      "ള": 603,
      "വ": 604,
      "സ": 605,
      "ാ": 606,
      "ി": 607,
      "െ": 608,
      "്": 609,
      "ൽ": 610,
      "ග": 611,
      "ද": 612,
      "න": 613,
      "ය": 614,
      "ර": 615,
      "්": 616,
      "ා": 617,
      "ᱥ": 618,
      "ᱮ": 619,
      "ᱴ": 620,
      "ṇ": 621,
      "ἔ": 622,
      "ἰ": 623,
      "ἱ": 624,
      "ἴ": 625,
      "ἵ": 626,
      "ῑ": 627,
      " ": 628,
      "‎": 629,
      "‏": 630,
      "–": 631,
      "—": 632,
      "―": 633,
      "‘": 634,
      "’": 635,
      "‚": 636,
      "“": 637,
      "”": 638,
      "„": 639,
      "†": 640,
      "•": 641,
      "․": 642,
      "…": 643,
      "‰": 644,
      "′": 645,
      "″": 646,
      "›": 647,
      "⁄": 648,
      "⁠": 649,
      "⁡": 650,
      "₂": 651,
      "₨": 652,
      "€": 653,
      "₹": 654,
      "⃗": 655,
      "№": 656,
      "←": 657,
      "↑": 658,
      "→": 659,
      "↓": 660,
      "∅": 661,
      "∈": 662,
      "−": 663,
      "∙": 664,
      "√": 665,
      "∝": 666,
      "∠": 667,
      "≈": 668,
      "≠": 669,
      "≤": 670,
      "□": 671,
      "▪": 672,
      "▶": 673,
      "▸": 674,
      "►": 675,
      "◆": 676,
      "◇": 677,
      "♦": 678,
      "♪": 679,
      "✍": 680,
      "✔": 681,
      "❍": 682,
      "❏": 683,
      "❑": 684,
      "〖": 685,
      "〗": 686,
      "七": 687,
      "三": 688,
      "保": 689,
      "号": 690,
      "合": 691,
      "四": 692,
      "国": 693,
      "園": 694,
      "土": 695,
      "大": 696,
      "拳": 697,
      "明": 698,
      "星": 699,
      "晚": 700,
      "武": 701,
      "気": 702,
      "海": 703,
      "略": 704,
      "發": 705,
      "神": 706,
      "育": 707,
      "舟": 708,
      "號": 709,
      "蜇": 710,
      "術": 711,
      "語": 712,
      "谱": 713,
      "連": 714,
      "際": 715,
      "霊": 716,
      "饭": 717,
      "ꯃ": 718,
      "ꯔ": 719,
      "ꯜ": 720,
      "ꯟ": 721,
      "ꯦ": 722,
      "": 723,
      "": 724,
      "": 725,
      "": 726,
      "️": 727,
      "﻿": 728,
      "￼": 729,
      "🏻": 730,
      "👇": 731,
      "🔥": 732,
      "😊": 733,
      "😎": 734,
      "\r\n": 735,
      "் ": 736,
      " \r\n": 737,
      " क": 738,
      "்க": 739,
      ". \r\n": 740,
      "்த": 741,
      "े ": 742,
      "ು ": 743,
      ", ": 744,
      "ు ": 745,
      "ి ": 746,
      "ு ": 747,
      "ा ": 748,
      "்ப": 749,
      "ी ": 750,
      "। \r\n": 751,
      ".\r\n": 752,
      "ೆ ": 753,
      "ும": 754,
      "ಿ ": 755,
      "க்க": 756,
      "ార": 757,
      "र ": 758,
      "்ட": 759,
      "ं ": 760,
      "ಲ್": 761,
      "్ర": 762,
      "ತ್": 763,
      "है": 764,
      "த்த": 765,
      "్ ": 766,
      "ில": 767,
      "ಿದ": 768,
      "ிய": 769,
      "ನ್": 770,
      "ಲ್ಲ": 771,
      "ப்ப": 772,
      "ಾರ": 773,
      "ந்த": 774,
      "ా ": 775,
      "ంద": 776,
      "்கள": 777,
      "்ற": 778,
      "ை ": 779,
      "ும் ": 780,
      "्र": 781,
      "ಂದ": 782,
      "న్": 783,
      "ಾಗ": 784,
      "್ರ": 785,
      "ார": 786,
      "ட்ட": 787,
      "ం ": 788,
      "ತ್ತ": 789,
      "मे": 790,
      "ನ್ನ": 791,
      "స్": 792,
      "ின": 793,
      " के ": 794,
      "ాల": 795,
      "ಿಸ": 796,
      "్య": 797,
      "ో ": 798,
      "ार": 799,
      ". ": 800,
      "ಕ್": 801,
      "्य": 802,
      "ని": 803,
      "ని ": 804,
      "ிர": 805,
      " स": 806,
      "ಗಳ": 807,
      "வர": 808,
      "ಸ್": 809,
      "ర్": 810,
      "ిం": 811,
      "து": 812,
      "న ": 813,
      "ರ್": 814,
      "ில் ": 815,
      "में ": 816,
      "ప్ర": 817,
      "ைய": 818,
      " ಮ": 819,
      "து ": 820,
      "್ಯ": 821,
      "ान": 822,
      "िय": 823,
      "್ದ": 824,
      "ி ": 825,
      "ாக": 826,
      "ான": 827,
      "் க": 828,
      "ుల": 829,
      "ನ್ನು ": 830,
      "ிற": 831,
      "் ப": 832,
      "ो ": 833,
      "ించ": 834,
      "ುವ": 835,
      "ற்ற": 836,
      "ಿಯ": 837,
      "క్": 838,
      "ுக்க": 839,
      "ள்": 840,
      " ಸ": 841,
      "क ": 842,
      "ಗೆ ": 843,
      "ने ": 844,
      "ంది": 845,
      "்ச": 846,
      "ారు": 847,
      "ಲ್ಲಿ ": 848,
      "లో ": 849,
      "र्": 850,
      "ను ": 851,
      "రి": 852,
      "ों": 853,
      "ೆಯ": 854,
      "? \r\n": 855,
      " ಕ": 856,
      "వి": 857,
      "ಿದ್ದ": 858,
      "ள்ள": 859,
      " की ": 860,
      "ங்கள": 861,
      "ுக": 862,
      "ీ ": 863,
      "ிக": 864,
      "ा है": 865,
      " ಪ": 866,
      "ம் ": 867,
      "ಿಕ": 868,
      "ல்": 869,
      "और ": 870,
      "என": 871,
      "ண்ட": 872,
      "ండ": 873,
      "त ": 874,
      "చే": 875,
      "न ": 876,
      "్ల": 877,
      "प्र": 878,
      "வி": 879,
      "स्": 880,
      "ವರ": 881,
      "ವಿ": 882,
      "ने": 883,
      " ಅ": 884,
      "ர்": 885,
      "ುತ್ತ": 886,
      "న్న": 887,
      "लि": 888,
      "గా ": 889,
      "ನಿ": 890,
      "కు ": 891,
      "் ம": 892,
      "್ಟ": 893,
      "इस": 894,
      "ा क": 895,
      "కి ": 896,
      "ங்க": 897,
      "ాయ": 898,
      "ாக ": 899,
      "செ": 900,
      "ಮಾ": 901,
      "वि": 902,
      "ார்": 903,
      "் த": 904,
      "वा": 905,
      "ಿದೆ": 906,
      "ುದ": 907,
      "ரு": 908,
      "ிக்க": 909,
      "స్త": 910,
      "ए ": 911,
      "ही": 912,
      "ால": 913,
      "ि ": 914,
      "త్": 915,
      " ಬ": 916,
      "ும்": 917,
      " ಹ": 918,
      "ನಾ": 919,
      "ాన": 920,
      "ந்த ": 921,
      "வே": 922,
      "ल ": 923,
      "ಕ್ಕ": 924,
      "్ట": 925,
      "ह ": 926,
      "हैं": 927,
      "ರಿ": 928,
      "மு": 929,
      "ంట": 930,
      "కు": 931,
      "ంత": 932,
      "नही": 933,
      "லை": 934,
      "से ": 935,
      "ే ": 936,
      "క ": 937,
      " कर": 938,
      "ರು": 939,
      "क्": 940,
      " को ": 941,
      "ப்பட": 942,
      "్ప": 943,
      "0 ": 944,
      "ಂತ": 945,
      "அவர": 946,
      "ಂಡ": 947,
      "దు": 948,
      "செய": 949,
      "रा": 950,
      "ಂದು ": 951,
      "ான ": 952,
      "उन": 953,
      "ాని": 954,
      "ರಾ": 955,
      "ಪ್ರ": 956,
      "ों ": 957,
      " का ": 958,
      "ವಾ": 959,
      "ுவ": 960,
      "ன்": 961,
      "ಇದ": 962,
      "ுத்த": 963,
      "ఈ ": 964,
      "ई ": 965,
      "ரு ": 966,
      "ப்பட்ட": 967,
      " ನ": 968,
      "ला": 969,
      "కో": 970,
      "ா ": 971,
      "ுள்ள": 972,
      "వా": 973,
      "नहीं ": 974,
      "म ": 975,
      "ड़": 976,
      "கு": 977,
      "ది ": 978,
      "ले": 979,
      "ವಾಗ": 980,
      "సి": 981,
      "भी ": 982,
      "ತ್ತು ": 983,
      "మా": 984,
      "हा": 985,
      "ప్ప": 986,
      "లే": 987,
      "ಿರ": 988,
      "ిత": 989,
      "ंग": 990,
      "दे": 991,
      "రా": 992,
      "ద్": 993,
      "ಕ್ಷ": 994,
      "स ": 995,
      "ிய ": 996,
      "रह": 997,
      "ம்": 998,
      "ர் ": 999,
      "ಿತ": 1000,
      "ைக": 1001,
      "ತ್ರ": 1002,
      "ாவ": 1003,
      "ற்றும் ": 1004,
      " ಆ": 1005,
      "లు ": 1006,
      "డి": 1007,
      "िया ": 1008,
      "बा": 1009,
      "मा": 1010,
      " के लि": 1011,
      "त्": 1012,
      "ಿನ": 1013,
      "ின் ": 1014,
      "என்ற": 1015,
      "एक ": 1016,
      "ಾರೆ": 1017,
      "రు": 1018,
      "కా": 1019,
      "ना": 1020,
      "ంగా ": 1021,
      "ಯಾ": 1022,
      "ல்ல": 1023,
      "ஒரு ": 1024,
      "డు": 1025,
      "వార": 1026,
      "ोग": 1027,
      "िक": 1028,
      "ರು ": 1029,
      "రియ": 1030,
      "ಾನ": 1031,
      "ப் ப": 1032,
      "ానికి ": 1033,
      "లి": 1034,
      "ுக்கு ": 1035,
      "ில்": 1036,
      "త ": 1037,
      "ులు ": 1038,
      "న్ని ": 1039,
      "ಿಗೆ ": 1040,
      "ಿಲ್ಲ": 1041,
      "सा": 1042,
      "पर ": 1043,
      "మరియ": 1044,
      "ದ ": 1045,
      "हु": 1046,
      "మరియు ": 1047,
      "நா": 1048,
      " ಪ್ರ": 1049,
      "ను": 1050,
      "ಟ್ಟ": 1051,
      "ுத": 1052,
      "ದರ": 1053,
      "जा": 1054,
      "గు": 1055,
      "வா": 1056,
      "ದಲ್ಲಿ ": 1057,
      "ంలో ": 1058,
      "ము": 1059,
      "ಮ್": 1060,
      "ித்த": 1061,
      "ిక": 1062,
      "அத": 1063,
      "ना ": 1064,
      "ಂಬ": 1065,
      "ता": 1066,
      "ಂಗ": 1067,
      "పో": 1068,
      "ವು ": 1069,
      "यह ": 1070,
      "त्र": 1071,
      "्ह": 1072,
      "నే": 1073,
      "ள் ": 1074,
      "के ": 1075,
      "ர்கள": 1076,
      "క్ష": 1077,
      "ಿದ್ದಾರೆ": 1078,
      "இது ": 1079,
      "ता है": 1080,
      "సు": 1081,
      "कि": 1082,
      "್ ": 1083,
      "ते ": 1084,
      "ன்ற": 1085,
      "ச்ச": 1086,
      "ూడ": 1087,
      "உள்ள": 1088,
      "ிட": 1089,
      "దే": 1090,
      "இந்த ": 1091,
      "ಗಳು ": 1092,
      "ೂ ": 1093,
      "తి": 1094,
      "ல் ": 1095,
      "ிவ": 1096,
      " में ": 1097,
      "ಾಯ": 1098,
      "ಕ್ಕೆ ": 1099,
      "ಷ್ಟ": 1100,
      "उन्ह": 1101,
      "नि": 1102,
      " के लिए ": 1103,
      "ತಿ": 1104,
      "?\r\n": 1105,
      "ంగ": 1106,
      "స్ ": 1107,
      "த்தில் ": 1108,
      "हि": 1109,
      "్యా": 1110,
      "ता ": 1111,
      "நட": 1112,
      "ర్ ": 1113,
      "న్నారు": 1114,
      "ದೇ": 1115,
      "क्ष": 1116,
      "मु": 1117,
      "என்று ": 1118,
      "వే": 1119,
      " से ": 1120,
      "ंद": 1121,
      "మై": 1122,
      "भा": 1123,
      "ನು ": 1124,
      "ति": 1125,
      "చ్": 1126,
      "மா": 1127,
      "ాయి": 1128,
      "ந்து ": 1129,
      "ने क": 1130,
      "போ": 1131,
      "இரு": 1132,
      "இர": 1133,
      "ವೆ": 1134,
      "స్తు": 1135,
      "ల్ల": 1136,
      "ன் ": 1137,
      "ಕಾರ": 1138,
      "ట్ట": 1139,
      " को": 1140,
      "కొ": 1141,
      "गय": 1142,
      "ಿಂದ": 1143,
      "पा": 1144,
      "பா": 1145,
      "ಬೇ": 1146,
      "ल्": 1147,
      "ுகிற": 1148,
      "న్ ": 1149,
      "பெ": 1150,
      "मि": 1151,
      "का": 1152,
      "ಮ್ಮ": 1153,
      "ान ": 1154,
      "ುವುದ": 1155,
      "चा": 1156,
      " ಮಾ": 1157,
      "ఇది ": 1158,
      "வெ": 1159,
      "னர்": 1160,
      "ಮಾಡ": 1161,
      "ಲು ": 1162,
      "రు ": 1163,
      "ಕಾ": 1164,
      "ங்கள் ": 1165,
      " வே": 1166,
      "ಎಂದು ": 1167,
      "ವನ್ನು ": 1168,
      "ಗಳನ್ನು ": 1169,
      "కార": 1170,
      "ಅವರ": 1171,
      "పా": 1172,
      "ాలు ": 1173,
      "ಳ್": 1174,
      "మీ": 1175,
      "ால் ": 1176,
      "తు": 1177,
      "ಲಾಗ": 1178,
      "కూడ": 1179,
      "డు ": 1180,
      "हो": 1181,
      "మి": 1182,
      "पर": 1183,
      "ల ": 1184,
      "చె": 1185,
      "य ": 1186,
      "ரி": 1187,
      "था": 1188,
      "ಚ್": 1189,
      "கா": 1190,
      "நீ": 1191,
      "ுட": 1192,
      "చేయ": 1193,
      "्ट": 1194,
      "సం": 1195,
      "்ய": 1196,
      "்ன": 1197,
      "సా": 1198,
      "ದೆ": 1199,
      "ற்க": 1200,
      "ಳ್ಳ": 1201,
      " வேண்ட": 1202,
      "ನೆ": 1203,
      "ी है": 1204,
      "ே ": 1205,
      "లో": 1206,
      "ಾಗಿ ": 1207,
      "े क": 1208,
      "ೇಳ": 1209,
      "ைக்க": 1210,
      "ிகள": 1211,
      "िया": 1212,
      " ತ": 1213,
      "ले ": 1214,
      "లు": 1215,
      "வழ": 1216,
      "ಾರ್": 1217,
      "ம்ப": 1218,
      "ంచ": 1219,
      "சா": 1220,
      "చ్చ": 1221,
      "इस ": 1222,
      "ಡೆ": 1223,
      "ரா": 1224,
      "द ": 1225,
      "மற்றும் ": 1226,
      "ಸ್ಥ": 1227,
      "ण ": 1228,
      "ಮತ್ತು ": 1229,
      " ವ": 1230,
      "मै": 1231,
      "ನೀ": 1232,
      "पु": 1233,
      " ವಿ": 1234,
      "కూడా ": 1235,
      "अप": 1236,
      "द्": 1237,
      "ிரு": 1238,
      "ింది": 1239,
      "ं क": 1240,
      "ల్ ": 1241,
      "ಕೆ": 1242,
      "आप": 1243,
      "ಕರ": 1244,
      "रू": 1245,
      "తీ": 1246,
      "ொட": 1247,
      "ी क": 1248,
      "उन्हों": 1249,
      "ನು": 1250,
      "ಮು": 1251,
      "ಟ್": 1252,
      "ுற": 1253,
      "இந்த": 1254,
      "ிப்ப": 1255,
      "టి": 1256,
      "ార్": 1257,
      "दि": 1258,
      "अध": 1259,
      "வில்": 1260,
      "దేశ": 1261,
      "ిన ": 1262,
      "ேர": 1263,
      "ைப் ப": 1264,
      "पू": 1265,
      "క్క": 1266,
      "ன்ன": 1267,
      "ೊಂಡ": 1268,
      "्य ": 1269,
      "ಚಿ": 1270,
      "తె": 1271,
      "ಸಾ": 1272,
      "ಪ್": 1273,
      ": ": 1274,
      " ದ": 1275,
      " ಜ": 1276,
      "ூற": 1277,
      "లేదు": 1278,
      "5 ": 1279,
      "రించ": 1280,
      "ష్ట": 1281,
      "ಆದರ": 1282,
      "ित": 1283,
      "அன": 1284,
      "செய்ய": 1285,
      "ಚ್ಚ": 1286,
      "திர": 1287,
      "நில": 1288,
      "పె": 1289,
      "పి": 1290,
      "తి ": 1291,
      "ಕು": 1292,
      "ाय": 1293,
      "்வ": 1294,
      "కే": 1295,
      "మైన ": 1296,
      "స్థ": 1297,
      "నా": 1298,
      "ுகள": 1299,
      "ఆయ": 1300,
      "రో": 1301,
      "श्": 1302,
      "ते हैं": 1303,
      "ట్ల": 1304,
      "್ಯಾ": 1305,
      "ల్": 1306,
      "டிய": 1307,
      "ினார்": 1308,
      "ండి": 1309,
      "மை": 1310,
      "20": 1311,
      "పై": 1312,
      "த் த": 1313,
      "் ச": 1314,
      "அவர்கள": 1315,
      "ாள": 1316,
      "ಬಿ": 1317,
      "ொண்ட": 1318,
      "सं": 1319,
      " ಇ": 1320,
      "తో ": 1321,
      " ப": 1322,
      "భార": 1323,
      " ಗ": 1324,
      "மே": 1325,
      "ಿಸಿದ": 1326,
      "அர": 1327,
      "స్ట": 1328,
      "मं": 1329,
      " ಎ": 1330,
      "வும் ": 1331,
      "व ": 1332,
      "ಶ್": 1333,
      "ಿರುವ": 1334,
      "క్ర": 1335,
      "ದು": 1336,
      "ுள்ளது": 1337,
      "लेकि": 1338,
      "ಾಲ": 1339,
      "रो": 1340,
      "మె": 1341,
      "் மற்றும் ": 1342,
      "డానికి ": 1343,
      "நான": 1344,
      "ைகள": 1345,
      " ಮತ್ತು ": 1346,
      "்த்த": 1347,
      "ండి ": 1348,
      "ற்ப": 1349,
      "మో": 1350,
      "भार": 1351,
      "ాన్ని ": 1352,
      "ಬ್": 1353,
      "च्": 1354,
      "्या ": 1355,
      "டுத்த": 1356,
      "தே": 1357,
      "जी": 1358,
      "త్ర": 1359,
      "ें ": 1360,
      "ುತ್ತದೆ": 1361,
      "ती": 1362,
      "मार": 1363,
      "गा": 1364,
      "வில்லை": 1365,
      "ிற்க": 1366,
      "जि": 1367,
      "ందు": 1368,
      "सी": 1369,
      "ों को ": 1370,
      "ब ": 1371,
      "ಡಿ": 1372,
      "शा": 1373,
      "ையில் ": 1374,
      "ஆன": 1375,
      "! \r\n": 1376,
      "2 ": 1377,
      "देश": 1378,
      "कार": 1379,
      "..": 1380,
      "వు": 1381,
      "ண்": 1382,
      "ஸ்": 1383,
      "தன": 1384,
      " किया ": 1385,
      "வர்கள": 1386,
      "ఆయన ": 1387,
      "వర": 1388,
      "న్న ": 1389,
      "ರಿಸ": 1390,
      "ட்ச": 1391,
      "ಧ್ಯ": 1392,
      "వ్య": 1393,
      "राज": 1394,
      "ಭಾರ": 1395,
      "ರಾಜ": 1396,
      "ది": 1397,
      "ு ப": 1398,
      "ాడు": 1399,
      "వె": 1400,
      "டி": 1401,
      "ಡ್": 1402,
      "नहीं है": 1403,
      "1 ": 1404,
      "ంది ": 1405,
      " कर ": 1406,
      " க": 1407,
      "थ ": 1408,
      "దా": 1409,
      "ఉంది": 1410,
      "ತ್ಯ": 1411,
      "ला ": 1412,
      "ைத்த": 1413,
      "வீ": 1414,
      "ಿಗ": 1415,
      "செய்த": 1416,
      "ೊಳ್ಳ": 1417,
      "ತಿ ": 1418,
      " ರ": 1419,
      "పై ": 1420,
      "00 ": 1421,
      "अन": 1422,
      "लोग": 1423,
      "என்ன": 1424,
      "ೋಗ": 1425,
      "ೊಂದ": 1426,
      "இருக்க": 1427,
      "ा कि ": 1428,
      "த்தை ": 1429,
      "ವಾಗಿ ": 1430,
      "ೆಗೆ ": 1431,
      "்க்க": 1432,
      " ಮಾಡ": 1433,
      "ट ": 1434,
      "फि": 1435,
      "ಹೆ": 1436,
      "ली ": 1437,
      "ుల ": 1438,
      "्या": 1439,
      "हो ": 1440,
      "ూ ": 1441,
      "కాన": 1442,
      "ಇದು ": 1443,
      "నేను ": 1444,
      "పరి": 1445,
      "या": 1446,
      "ித": 1447,
      "దీ": 1448,
      "ही ": 1449,
      "ధ్య": 1450,
      "ும்ப": 1451,
      "மாக ": 1452,
      "मंत्र": 1453,
      "అత": 1454,
      "ों के ": 1455,
      "ಗ್": 1456,
      "रु": 1457,
      "ాల్": 1458,
      "್ಧ": 1459,
      "సమ": 1460,
      "பிர": 1461,
      "ದೇಶ": 1462,
      "ఉన్న": 1463,
      "ையும் ": 1464,
      " कि ": 1465,
      "ಾದ": 1466,
      "जान": 1467,
      "म्": 1468,
      "యో": 1469,
      " ம": 1470,
      " ಶ": 1471,
      "త్త": 1472,
      "पी": 1473,
      "వ ": 1474,
      "ுகிறது": 1475,
      "கோ": 1476,
      "सक": 1477,
      "ట్ ": 1478,
      "ః ": 1479,
      "ಆದರೆ ": 1480,
      "ें": 1481,
      "లీ": 1482,
      "ವೇ": 1483,
      "ित ": 1484,
      "ಭಾರತ": 1485,
      "िक ": 1486,
      "ుడు ": 1487,
      "ಅದ": 1488,
      "ాలి": 1489,
      "సర": 1490,
      "ತ್ತು": 1491,
      "అని ": 1492,
      "ఒక ": 1493,
      "ார் ": 1494,
      "డం ": 1495,
      "ாத": 1496,
      "लेकिन ": 1497,
      " ನಿ": 1498,
      "పు": 1499,
      "இத": 1500,
      "स्थ": 1501,
      "డ్": 1502,
      "ನೆ ": 1503,
      "விர": 1504,
      "ंध": 1505,
      "ించారు": 1506,
      "नी ": 1507,
      "ಬ್ಬ": 1508,
      "కానీ ": 1509,
      " மு": 1510,
      "ద్ద": 1511,
      "ಗೆ": 1512,
      "ಲೀ": 1513,
      "அதிக": 1514,
      "उप": 1515,
      "ణ ": 1516,
      "ాలా ": 1517,
      "ரிய": 1518,
      "ಸಿ": 1519,
      "లా": 1520,
      "వచ్చ": 1521,
      "या ": 1522,
      "గ్": 1523,
      "बी": 1524,
      "ాల ": 1525,
      "ों में ": 1526,
      "ೆಯಲ್ಲಿ ": 1527,
      "ுப்ப": 1528,
      " सं": 1529,
      "ைக் க": 1530,
      "பி": 1531,
      "ஃ ": 1532,
      "ಂಧ": 1533,
      "ति ": 1534,
      "ತಿಯ": 1535,
      " स्": 1536,
      "டி ": 1537,
      "ವರು ": 1538,
      "்ச்ச": 1539,
      "ಬಹ": 1540,
      "மான ": 1541,
      " ಸಂ": 1542,
      "ద్ధ": 1543,
      "ಲಾ": 1544,
      "ः ": 1545,
      "నిర్": 1546,
      "రె": 1547,
      "रूप": 1548,
      "అవ": 1549,
      "லா": 1550,
      "ಲಿ": 1551,
      "బా": 1552,
      "ின் ப": 1553,
      "पह": 1554,
      "ೀಯ": 1555,
      "मी": 1556,
      "ಕ್ರ": 1557,
      "చాలా ": 1558,
      "చి": 1559,
      "మ్": 1560,
      "భా": 1561,
      "లా ": 1562,
      "ಜೆ": 1563,
      "గ్ర": 1564,
      " வேண்டும்": 1565,
      "ವು": 1566,
      "गया है": 1567,
      "ಯಾವ": 1568,
      "த்திற்க": 1569,
      "लग": 1570,
      "वार": 1571,
      "இட": 1572,
      "च ": 1573,
      "அற": 1574,
      "ಸಂ": 1575,
      "ಹೇಳ": 1576,
      "ின் ம": 1577,
      "చేశ": 1578,
      "தி": 1579,
      "ंड": 1580,
      "శ్": 1581,
      "ರೆ": 1582,
      "నుండి ": 1583,
      " कि": 1584,
      "ुछ": 1585,
      "का ": 1586,
      "सर": 1587,
      "అయ": 1588,
      "दा": 1589,
      "ு க": 1590,
      "प्": 1591,
      "यह": 1592,
      "चाहि": 1593,
      "ంత్ర": 1594,
      "ಗಳಲ್ಲಿ ": 1595,
      "ದ್ದ": 1596,
      "సం ": 1597,
      "स्त": 1598,
      "ष्ट": 1599,
      " ச": 1600,
      "में क": 1601,
      "భు": 1602,
      "அவ": 1603,
      "మే": 1604,
      "ನೇ": 1605,
      "ூறினார்": 1606,
      "మర": 1607,
      "ಬೆ": 1608,
      "4 ": 1609,
      "ர்ப": 1610,
      "एक": 1611,
      "ியில் ": 1612,
      "ली": 1613,
      "్ర ": 1614,
      "मान": 1615,
      "जा ": 1616,
      " ಮು": 1617,
      "ిన": 1618,
      "ஆனால் ": 1619,
      "्रे": 1620,
      "ஆக": 1621,
      "రాజ": 1622,
      "उन्होंने क": 1623,
      "ಪಡ": 1624,
      "ఉండ": 1625,
      "వీ": 1626,
      "టి ": 1627,
      "ఉంట": 1628,
      "ார்கள": 1629,
      "రిగ": 1630,
      "नी": 1631,
      "ಸ್ತ": 1632,
      "दर्": 1633,
      "ँ ": 1634,
      "శా": 1635,
      "ాలను ": 1636,
      "యం ": 1637,
      "दी ": 1638,
      "ಪ್ಪ": 1639,
      "ಿದ್ದರು": 1640,
      "ಅವರು ": 1641,
      "జి": 1642,
      "िया है": 1643,
      "இருந்த": 1644,
      "तर": 1645,
      "తెలి": 1646,
      "जो ": 1647,
      "ढ़": 1648,
      "ுவத": 1649,
      "ಹಾ": 1650,
      "ಸು": 1651,
      "सु": 1652,
      "ों की ": 1653,
      "నం ": 1654,
      "की ": 1655,
      " करने": 1656,
      "குற": 1657,
      "19": 1658,
      "மன": 1659,
      "రే": 1660,
      "वी": 1661,
      "बार": 1662,
      "எதிர": 1663,
      " ಉ": 1664,
      "ಳಿಸ": 1665,
      "ಜನ": 1666,
      "நிற": 1667,
      "मो": 1668,
      "ர்வ": 1669,
      "నీ": 1670,
      "బీ": 1671,
      "ಿತ್ತು": 1672,
      "पुलि": 1673,
      "పోలీ": 1674,
      "డి ": 1675,
      "ாட்ட": 1676,
      "ತೆ": 1677,
      "மீ": 1678,
      "మీరు ": 1679,
      "साथ ": 1680,
      "லை ": 1681,
      "मंत्री ": 1682,
      "ద్య": 1683,
      "ಧಾನ": 1684,
      "టు": 1685,
      "ಲೆ ": 1686,
      "ನೀಡ": 1687,
      "चाहिए": 1688,
      "कार ": 1689,
      "త్వ": 1690,
      "அமை": 1691,
      "ಂತೆ ": 1692,
      "सम": 1693,
      "रे": 1694,
      "ಗಳು": 1695,
      "वह ": 1696,
      "ాను": 1697,
      "6 ": 1698,
      "వర్": 1699,
      "ன்ப": 1700,
      "மைய": 1701,
      "थे": 1702,
      "ಪಾ": 1703,
      "ஸ் ": 1704,
      "యా": 1705,
      "இந்திய": 1706,
      "ರೆ ": 1707,
      "3 ": 1708,
      "ರಿಂದ": 1709,
      " और ": 1710,
      "மூ": 1711,
      "మొ": 1712,
      "சி": 1713,
      "పొ": 1714,
      "సమా": 1715,
      "शि": 1716,
      "न्": 1717,
      "ೆಯನ್ನು ": 1718,
      " ಕಾರ": 1719,
      "ಹಾಗ": 1720,
      "బి": 1721,
      "ப்பு ": 1722,
      "ல்லை": 1723,
      "அரச": 1724,
      "थी": 1725,
      "शु": 1726,
      "8 ": 1727,
      "రూ": 1728,
      "தா": 1729,
      "ಸ್ಪ": 1730,
      "ಂದ್ರ": 1731,
      "ைவ": 1732,
      "ప్రభు": 1733,
      "टी": 1734,
      "ಿತು": 1735,
      "वे ": 1736,
      "ண்ண": 1737,
      "ధా": 1738,
      "చేసి": 1739,
      "बहु": 1740,
      "ంటి ": 1741,
      "தெ": 1742,
      "அல்ல": 1743,
      "निर्": 1744,
      "ಲಾಗಿದೆ": 1745,
      "జే": 1746,
      "सि": 1747,
      "ವನ": 1748,
      "లను ": 1749,
      "अपने ": 1750,
      "య ": 1751,
      "జా": 1752,
      " ಹೆ": 1753,
      "వై": 1754,
      "ೊಲೀ": 1755,
      "ంధ": 1756,
      "सी ": 1757,
      "పూ": 1758,
      "கட": 1759,
      "ులో ": 1760,
      "இல்லை": 1761,
      "வெள": 1762,
      "டிக்க": 1763,
      "के": 1764,
      "నా ": 1765,
      "చేశారు": 1766,
      "मैं ": 1767,
      "ாரண": 1768,
      "కి": 1769,
      "ின் க": 1770,
      "మార": 1771,
      "చిత": 1772,
      "ಖ್ಯ": 1773,
      "నే ": 1774,
      "ರೋ": 1775,
      " ಕು": 1776,
      "ೂಲ": 1777,
      "व्य": 1778,
      "ఖ్య": 1779,
      "ேன்": 1780,
      "హి": 1781,
      "ಒಂದು ": 1782,
      "డ ": 1783,
      "தொட": 1784,
      "చెప్ప": 1785,
      "ुछ ": 1786,
      "ೂಡ": 1787,
      "री ": 1788,
      "ಿಸುತ್ತ": 1789,
      " ಸಾ": 1790,
      "ದಲ್ಲ": 1791,
      "ಲೇ": 1792,
      "గా": 1793,
      "సి ": 1794,
      "ங்கள்": 1795,
      "మీ ": 1796,
      "పర": 1797,
      "మంత్ర": 1798,
      "ನಾನು ": 1799,
      "वे": 1800,
      "கவ": 1801,
      "ಗ್ಗೆ ": 1802,
      "मुख": 1803,
      "ம் க": 1804,
      "योग": 1805,
      "వారు ": 1806,
      "इसके ": 1807,
      "ின்ற": 1808,
      "चु": 1809,
      "ாட": 1810,
      "విష": 1811,
      "बे": 1812,
      "ைத் த": 1813,
      "र में ": 1814,
      "బ్": 1815,
      " के लिए": 1816,
      "అన్నారు": 1817,
      "வழங்க": 1818,
      "அது ": 1819,
      "జీ": 1820,
      "కె": 1821,
      "ప్రా": 1822,
      "கர": 1823,
      "మ ": 1824,
      "उन्होंने ": 1825,
      "से": 1826,
      "టు ": 1827,
      "ಜ್": 1828,
      "நான் ": 1829,
      "हा कि ": 1830,
      "ಹಿ": 1831,
      "ದಾ": 1832,
      "ுப": 1833,
      "క్క ": 1834,
      "சிற": 1835,
      "ర్థ": 1836,
      "ாம": 1837,
      "స్తుంది": 1838,
      "ರೂ": 1839,
      "ಚಿತ್ರ": 1840,
      "க ": 1841,
      "ೋದ": 1842,
      "కోసం ": 1843,
      "ట్": 1844,
      "సహ": 1845,
      "ಭಾ": 1846,
      "க் க": 1847,
      "्यक": 1848,
      "ज ": 1849,
      " ಚ": 1850,
      "बंध": 1851,
      "இருப்ப": 1852,
      " कार": 1853,
      "ಂತರ": 1854,
      "లేద": 1855,
      "ಿದೆ ": 1856,
      "ிட்ட": 1857,
      "யார": 1858,
      "7 ": 1859,
      "முத": 1860,
      "సె": 1861,
      "తం ": 1862,
      "ಕ್ತ": 1863,
      "కలి": 1864,
      "உள்ளது": 1865,
      "ற்றி ": 1866,
      "ಕೋ": 1867,
      "ులను ": 1868,
      "रहे ": 1869,
      "ாது": 1870,
      "கே": 1871,
      "ையை ": 1872,
      "అభ": 1873,
      "ा कर": 1874,
      "ింగ": 1875,
      "ந்திர": 1876,
      "సు ": 1877,
      "க்கள": 1878,
      "క్ ": 1879,
      "మార్": 1880,
      "ती है": 1881,
      "ூட": 1882,
      "पूर्": 1883,
      "ார்கள்": 1884,
      "ంబ": 1885,
      "ித்து ": 1886,
      "್ಣ": 1887,
      "्री": 1888,
      "పు ": 1889,
      "ಲೆ": 1890,
      "ನಡೆ": 1891,
      "भाज": 1892,
      "శ్ర": 1893,
      "గొ": 1894,
      " ಸಿ": 1895,
      "திய": 1896,
      "ச் ": 1897,
      "என்ப": 1898,
      "अनु": 1899,
      "பல": 1900,
      "ದಿಂದ": 1901,
      "ொழ": 1902,
      "కోవ": 1903,
      " ಬಗ್ಗೆ ": 1904,
      "நாட": 1905,
      "ೂರ್": 1906,
      "ಬಹುದ": 1907,
      "லீ": 1908,
      " कोई ": 1909,
      "सा ": 1910,
      "ತೆ ": 1911,
      "एस": 1912,
      "ிவு ": 1913,
      "ಬೇಕು": 1914,
      "ग ": 1915,
      "ருத்த": 1916,
      "ಕೊ": 1917,
      "ಪು": 1918,
      "உட": 1919,
      "್ರಾ": 1920,
      "ತಾ": 1921,
      "र क": 1922,
      "కర": 1923,
      "యొ": 1924,
      "श ": 1925,
      "होग": 1926,
      "ನಾವು ": 1927,
      "ವಾದ": 1928,
      "ಿಸುವ": 1929,
      "ులు": 1930,
      "డ్ ": 1931,
      "हम ": 1932,
      "माम": 1933,
      "యొక్క ": 1934,
      "తీసు": 1935,
      "తన ": 1936,
      "ప్రధా": 1937,
      "ಜೆಪ": 1938,
      "தம": 1939,
      "அவர் ": 1940,
      "ಗಳಿಗೆ ": 1941,
      "ತು": 1942,
      "மேல": 1943,
      "ಎಲ್ಲ": 1944,
      "ஸ்த": 1945,
      "విధ": 1946,
      " ನೀ": 1947,
      "ಮಿ": 1948,
      "తర": 1949,
      "చార": 1950,
      "ರಣ": 1951,
      "ప్పుడు ": 1952,
      "गई ": 1953,
      "ಲಿಲ್ಲ": 1954,
      "दो": 1955,
      "ಂತ್ರ": 1956,
      "धान": 1957,
      "ೆಸ್": 1958,
      "று ": 1959,
      "े में ": 1960,
      "ேச": 1961,
      "వారి": 1962,
      "ಕರಣ": 1963,
      "ಂಟ": 1964,
      "పే": 1965,
      "வை ": 1966,
      "ంలో": 1967,
      "जाए": 1968,
      "रि": 1969,
      "చిత్ర": 1970,
      "ರಿಗೆ ": 1971,
      "்ர": 1972,
      "दी": 1973,
      "ಿಕೊಂಡ": 1974,
      "ళ్ల": 1975,
      "परि": 1976,
      "वर्": 1977,
      "న్ని": 1978,
      "ప్": 1979,
      "ಷ್ಟು ": 1980,
      "उन्हें ": 1981,
      " ಸಮ": 1982,
      "ಿವೆ": 1983,
      "ब्": 1984,
      "दु": 1985,
      "फिल्": 1986,
      "ப்படுத்த": 1987,
      "తా": 1988,
      "விட்ட": 1989,
      "வு": 1990,
      "ಗು": 1991,
      "ಮೆ": 1992,
      "రించి ": 1993,
      "ాలు": 1994,
      "ಂಗ್": 1995,
      "உங்கள": 1996,
      " ಹಾಗ": 1997,
      "्रा": 1998,
      "ுக்கும் ": 1999,
      "हम": 2000,
      "అను": 2001,
      " ಮೇ": 2002,
      "च्छ": 2003,
      "ಿದರು": 2004,
      "டை": 2005,
      "ಡೆಯ": 2006,
      "மான": 2007,
      "ಯೋ": 2008,
      "ಯಾರ": 2009,
      "ிறது": 2010,
      "ಯಾವುದ": 2011,
      " ಕೆ": 2012,
      "ಇಲ್ಲ": 2013,
      "ा था": 2014,
      "இய": 2015,
      "ಡು": 2016,
      "ఆ ": 2017,
      "देख": 2018,
      "ನ್ ": 2019,
      "தீ": 2020,
      "ாய": 2021,
      "द्ध": 2022,
      "ூர": 2023,
      "री": 2024,
      "ಿಕೆ": 2025,
      "मह": 2026,
      "కాదు": 2027,
      "வும்": 2028,
      "ನಿರ್": 2029,
      "வழக்க": 2030,
      "ర్చ": 2031,
      "उस": 2032,
      "ओं": 2033,
      "न क": 2034,
      "முற": 2035,
      "लिए ": 2036,
      "పార": 2037,
      "விட": 2038,
      "ಮಾನ": 2039,
      "दू": 2040,
      "ಿ ಸ": 2041,
      "భారత": 2042,
      "గురించి ": 2043,
      "खि": 2044,
      "ించిన ": 2045,
      "ಿಯಾ": 2046,
      "ಚಾರ": 2047,
      "ने वा": 2048,
      "ಹೊ": 2049,
      "ிழ": 2050,
      "టిక": 2051,
      "ಂಭ": 2052,
      "ಕರ್": 2053,
      "ಧಿಕ": 2054,
      "वश": 2055,
      "ಸ್ಟ": 2056,
      "ಿಕೊಳ್ಳ": 2057,
      "ುವುದು ": 2058,
      "ವರ್": 2059,
      "வித்த": 2060,
      "ನೋ": 2061,
      "క్కడ ": 2062,
      "ంత ": 2063,
      "ோர": 2064,
      "అధ": 2065,
      "உய": 2066,
      "ರ್ಥ": 2067,
      "ೇಂದ್ರ": 2068,
      "ತರ": 2069,
      "ிருந்து ": 2070,
      "ಮಾರ": 2071,
      "சு": 2072,
      "్య ": 2073,
      "ிகள் ": 2074,
      "ము ": 2075,
      "్రె": 2076,
      "ుకు": 2077,
      "ులకు ": 2078,
      "ிகவும் ": 2079,
      "लो": 2080,
      " முடிய": 2081,
      "ರಡ": 2082,
      "ಹೆಚ್ಚ": 2083,
      "ాన్ ": 2084,
      "उनके ": 2085,
      "ಎಂದ": 2086,
      "ச் ச": 2087,
      "ಗೊ": 2088,
      "பாஜ": 2089,
      "ಅವ": 2090,
      "హో": 2091,
      "ೇರ": 2092,
      "ஏற்ப": 2093,
      "அம": 2094,
      "ింగ్ ": 2095,
      "ಬೇಕ": 2096,
      "भि": 2097,
      "ெட": 2098,
      " सम": 2099,
      "ರ್ಕಾರ": 2100,
      "ುದ್ಧ": 2101,
      "తుంది": 2102,
      "பொ": 2103,
      "ವಣ": 2104,
      "ுடன் ": 2105,
      "ிலும் ": 2106,
      "ंगे": 2107,
      "ಿಸಿದರು": 2108,
      "లకు ": 2109,
      "ರಾಜ್ಯ": 2110,
      "भी": 2111,
      "दिया ": 2112,
      "நேர": 2113,
      "త్వం ": 2114,
      "ड़ ": 2115,
      "గించ": 2116,
      "ಮನ": 2117,
      "இரண்ட": 2118,
      "ும் என்று ": 2119,
      "కార్య": 2120,
      "உற": 2121,
      "आई": 2122,
      "अधिक": 2123,
      "ముఖ్య": 2124,
      "పీ ": 2125,
      "पुलिस ": 2126,
      "बै": 2127,
      "ಹೋ": 2128,
      "த்திற்கு ": 2129,
      "ோம்": 2130,
      "గి": 2131,
      "ಎಸ್": 2132,
      "ಂಗ್ರ": 2133,
      "ுழ": 2134,
      "ಾಗಿದೆ": 2135,
      "’ ": 2136,
      "20 ": 2137,
      "பட": 2138,
      "దు ": 2139,
      "க்கு ": 2140,
      "ಣ್ಣ": 2141,
      " सा": 2142,
      "బీజే": 2143,
      "ोज": 2144,
      "నె": 2145,
      "ಿವ": 2146,
      "நீங்கள் ": 2147,
      "ఉన్నాయి": 2148,
      "रहा है": 2149,
      "ర్శ": 2150,
      "செய்யப்பட்ட": 2151,
      " ಅವರ": 2152,
      "ಟಿ ": 2153,
      "च्च": 2154,
      "ூட்ட": 2155,
      "మంది ": 2156,
      "स्ट": 2157,
      "ை எ": 2158,
      "పోలీస": 2159,
      "பய": 2160,
      "ఉంటు": 2161,
      "ಈ ": 2162,
      "क्या ": 2163,
      "ಿದ್ದು": 2164,
      "ுகள் ": 2165,
      "तो ": 2166,
      "வர் ": 2167,
      "प ": 2168,
      "தி ": 2169,
      "हर": 2170,
      "చూ": 2171,
      "में": 2172,
      "ಯೆ": 2173,
      "జె": 2174,
      "அழ": 2175,
      "शे": 2176,
      "மை ": 2177,
      "तरह": 2178,
      "ின்ன": 2179,
      "ஆகிய": 2180,
      "ంభ": 2181,
      "हमार": 2182,
      "రోజ": 2183,
      "ரூ": 2184,
      "ದ್ಯ": 2185,
      "ொள்ள": 2186,
      "డ్డ": 2187,
      "ತನ": 2188,
      "ிக்கப்பட்ட": 2189,
      "ರೀ": 2190,
      "అయిత": 2191,
      "బడి": 2192,
      "தவ": 2193,
      "तक ": 2194,
      "ాలని ": 2195,
      "ंग्रे": 2196,
      "50 ": 2197,
      "న్య": 2198,
      "ంటే ": 2199,
      "आप ": 2200,
      "అవసర": 2201,
      "ம் ப": 2202,
      "ಿಸ್": 2203,
      "्ष": 2204,
      "వంటి ": 2205,
      "त क": 2206,
      "நோ": 2207,
      "्र ": 2208,
      "ಿಯಲ್ಲಿ ": 2209,
      "ஃப": 2210,
      "అది ": 2211,
      "ಶಾ": 2212,
      "कर ": 2213,
      "मुझ": 2214,
      "अं": 2215,
      "ते": 2216,
      "ಹಾರ": 2217,
      "ನಮ್ಮ": 2218,
      "లక్ష": 2219,
      "்ப்ப": 2220,
      "पा ": 2221,
      "కాల": 2222,
      "ಕೆಲ": 2223,
      "ால்": 2224,
      "भु": 2225,
      "ಿಸಿ ": 2226,
      "ती ": 2227,
      "పోయ": 2228,
      "गु": 2229,
      "फ ": 2230,
      "आवश": 2231,
      "ಆಗ": 2232,
      "यु": 2233,
      "ೊಲೀಸ": 2234,
      "हैं ": 2235,
      "ுள்ளார்": 2236,
      "गया": 2237,
      "சில": 2238,
      "జరిగ": 2239,
      "जो": 2240,
      "प्रति": 2241,
      "ற்கு ": 2242,
      "ஞ்ச": 2243,
      "ங்களில் ": 2244,
      "రుగు": 2245,
      "ప్రజ": 2246,
      "त्र ": 2247,
      "ों का ": 2248,
      "அனைத்த": 2249,
      "ట్లు ": 2250,
      "रहे हैं": 2251,
      "సాధ": 2252,
      "్వ": 2253,
      "వ్యక్": 2254,
      "ों ने ": 2255,
      "బె": 2256,
      "మంత్రి ": 2257,
      "ించింది": 2258,
      "ದೆ ": 2259,
      "அண": 2260,
      "ष्": 2261,
      "ನ್ಯ": 2262,
      "हू": 2263,
      "அள": 2264,
      "ங்கிர": 2265,
      "అనే": 2266,
      "வாழ": 2267,
      "हाँ ": 2268,
      "మ్మ": 2269,
      "ಕ್ಷಣ": 2270,
      "को": 2271,
      "ಸ್ವ": 2272,
      "ఎం": 2273,
      "தர": 2274,
      "రాష్ట": 2275,
      "उत्": 2276,
      "வு ": 2277,
      " ಭ": 2278,
      "தாக ": 2279,
      "సీ": 2280,
      "निय": 2281,
      "ுங்கள்": 2282,
      "குழ": 2283,
      "रख": 2284,
      "ின் த": 2285,
      "రెండ": 2286,
      "శి": 2287,
      "ఏమి": 2288,
      "मौ": 2289,
      "விள": 2290,
      "ಗೊಂಡ": 2291,
      "ವಾಗಿದೆ": 2292,
      "த்தின் ": 2293,
      "ஸ்ட": 2294,
      "தலை": 2295,
      "ಲು": 2296,
      "ಂಪ": 2297,
      "ಿಯನ್ನು ": 2298,
      "ೂರ": 2299,
      "லக": 2300,
      "பு": 2301,
      "அவரது ": 2302,
      "चि": 2303,
      "இற": 2304,
      "విద్య": 2305,
      "ெர": 2306,
      "ಿದ್ದೇ": 2307,
      "அவர் க": 2308,
      " सु": 2309,
      "விச": 2310,
      "ப்போ": 2311,
      "द्वार": 2312,
      "बि": 2313,
      "ಕೆ ": 2314,
      " का": 2315,
      "வரும் ": 2316,
      "ಬಿಜೆಪ": 2317,
      "బంధ": 2318,
      "चार": 2319,
      "गए ": 2320,
      "बहुत ": 2321,
      "బ్బ": 2322,
      "కాంగ": 2323,
      "ಳೆ": 2324,
      "ுகின்ற": 2325,
      "ंच": 2326,
      "క్కు": 2327,
      "कि ": 2328,
      "ర్య": 2329,
      "9 ": 2330,
      "ంక": 2331,
      "దీని": 2332,
      " ಆಗ": 2333,
      "ంద్ర ": 2334,
      "కాంగ్రె": 2335,
      "ಷ್": 2336,
      " வ": 2337,
      "10 ": 2338,
      "ார்த்த": 2339,
      " के साथ ": 2340,
      "ామ": 2341,
      "వచ్చు": 2342,
      "ಂಗ್ರೆಸ್": 2343,
      "बारे में ": 2344,
      "మి ": 2345,
      "बढ़": 2346,
      "ఉంటుంది": 2347,
      "गी": 2348,
      "ిక ": 2349,
      " ಬೆ": 2350,
      "हुआ": 2351,
      "తెలిప": 2352,
      "అయితే": 2353,
      "వాత ": 2354,
      "ಹು": 2355,
      "ಿಕೆ ": 2356,
      "ప్పటిక": 2357,
      "गि": 2358,
      "ಾಣ": 2359,
      "போலீ": 2360,
      "இங்க": 2361,
      "ష్": 2362,
      "ತಿಳ": 2363,
      "హా": 2364,
      "பெற்ற": 2365,
      "जाता है": 2366,
      "10": 2367,
      "ುವುದಿಲ್ಲ": 2368,
      "अधिक ": 2369,
      "सब": 2370,
      " क्य": 2371,
      " सक": 2372,
      "மோ": 2373,
      "ందుకు ": 2374,
      "వ్యా": 2375,
      "కరించ": 2376,
      "पहले ": 2377,
      "పంచ": 2378,
      "வெளிய": 2379,
      "எந்த ": 2380,
      "ారంభ": 2381,
      "ప్రారంభ": 2382,
      "बाद ": 2383,
      "इसे ": 2384,
      "ಪರಿ": 2385,
      "ாகும்": 2386,
      "ದುಕ": 2387,
      "மக": 2388,
      "ர்கள் ": 2389,
      " ಮೂಲ": 2390,
      "ಎಂಬ": 2391,
      "కూ": 2392,
      "ದಲ": 2393,
      "ಧಿಕಾರ": 2394,
      "ికార": 2395,
      "खिला": 2396,
      "पि": 2397,
      "ेश": 2398,
      "ನೆಯ": 2399,
      "ுள்ளனர்": 2400,
      "ಶ್ರ": 2401,
      "ैसे ": 2402,
      "విషయ": 2403,
      "ఉన్న ": 2404,
      "ందని ": 2405,
      "என்ன ": 2406,
      "ನಾಯ": 2407,
      "ಟಿ": 2408,
      "వహ": 2409,
      "ಬಹುದು": 2410,
      "வே ": 2411,
      "प्रा": 2412,
      "ெய": 2413,
      "!\r\n": 2414,
      "ான் ": 2415,
      "కారణ": 2416,
      "యె": 2417,
      "ியை ": 2418,
      "మాన": 2419,
      "ఎస్": 2420,
      "టీ": 2421,
      "ைகள் ": 2422,
      "नहीं क": 2423,
      "ारी ": 2424,
      " है": 2425,
      "ఎలా ": 2426,
      "अच्छ": 2427,
      "ಜಿ": 2428,
      "ఉప": 2429,
      "रुप": 2430,
      "ಡ್ಡ": 2431,
      "ಪಿ": 2432,
      "ர் க": 2433,
      "ந்து க": 2434,
      "ನಲ್ಲಿ ": 2435,
      "కీ": 2436,
      " ಕ್ರ": 2437,
      " ಬಿ": 2438,
      "ನಿಮ್ಮ": 2439,
      "சே": 2440,
      "గో": 2441,
      "राज्य": 2442,
      "மேலும் ": 2443,
      "సార": 2444,
      "అంత": 2445,
      "ಸೆ": 2446,
      "ுடன": 2447,
      "ಿಸಲು ": 2448,
      "ಬರ": 2449,
      "మోడ": 2450,
      "मुझे ": 2451,
      "ಪಟ್ಟ": 2452,
      "விக்க": 2453,
      "காங்கிர": 2454,
      "ानी ": 2455,
      "బీజేపీ ": 2456,
      "వేశ": 2457,
      "ட்டும": 2458,
      "ಯಾವುದೇ": 2459,
      "विश्": 2460,
      "ிருந்த": 2461,
      "नहीं": 2462,
      "ಉತ್ತ": 2463,
      "தை ": 2464,
      "విజ": 2465,
      "ने की ": 2466,
      "மாநில": 2467,
      "रही है": 2468,
      "ड ": 2469,
      "खा": 2470,
      "तु": 2471,
      "रूप से ": 2472,
      "அவர்கள் ": 2473,
      "ಸಹ": 2474,
      "భారతదేశ": 2475,
      "ಡುವ": 2476,
      "डी": 2477,
      "ಿ ಅ": 2478,
      "ನ್ಯಾ": 2479,
      "ప్రతి": 2480,
      "దార": 2481,
      "201": 2482,
      "இருப்பின": 2483,
      "உள்ளன": 2484,
      "வை": 2485,
      "பெர": 2486,
      "ోంది": 2487,
      "పూర్": 2488,
      "அட": 2489,
      "ಷ್ಟ್ರ": 2490,
      "ர்கள்": 2491,
      "இந்திய ": 2492,
      "தேச": 2493,
      "ार्": 2494,
      "ೂರು ": 2495,
      "எஸ்": 2496,
      "ಡಿಯ": 2497,
      "ವಿದ": 2498,
      "त्य": 2499,
      "बच्च": 2500,
      "ಶಿ": 2501,
      "मिल ": 2502,
      "ையான ": 2503,
      "ైన ": 2504,
      "ಘಟ": 2505,
      "செல": 2506,
      "सू": 2507,
      "मू": 2508,
      "ಂಕ": 2509,
      "ದು ": 2510,
      "अध्य": 2511,
      "रुपय": 2512,
      "ர் ப": 2513,
      "செயல": 2514,
      "ట్ర": 2515,
      "மிகவும் ": 2516,
      "అధికార": 2517,
      "త్య": 2518,
      "ద్వార": 2519,
      "ಸರ": 2520,
      "फिर ": 2521,
      "ंद्र ": 2522,
      "न्य": 2523,
      "ೂ ಅ": 2524,
      "வாக்க": 2525,
      " ಮೇಲೆ ": 2526,
      "ध्य": 2527,
      "முன்ன": 2528,
      "లేదా ": 2529,
      "் தெ": 2530,
      "... \r\n": 2531,
      " ಕೊ": 2532,
      "ఆమె": 2533,
      "बना": 2534,
      "ೊಂದಿಗೆ ": 2535,
      "ಿಯಾಗ": 2536,
      "ரோ": 2537,
      "ा को ": 2538,
      "మన": 2539,
      "ంతో ": 2540,
      "ಿಸಿದ್ದಾರೆ": 2541,
      "विध": 2542,
      "యు": 2543,
      "ುಕ": 2544,
      "भारत ": 2545,
      "கூறினார்": 2546,
      "र्म": 2547,
      "நீதி": 2548,
      "उन्होंने कहा": 2549,
      "द्वारा ": 2550,
      " ಒ": 2551,
      "కర్": 2552,
      "ல் க": 2553,
      "ಬಂದ": 2554,
      "வில": 2555,
      "से क": 2556,
      "मेर": 2557,
      "ేష": 2558,
      "ा और ": 2559,
      "ಂಚ": 2560,
      "పోలీసులు ": 2561,
      "घट": 2562,
      "పీ": 2563,
      "ಹೀ": 2564,
      "ல் ப": 2565,
      "वर": 2566,
      "நடத்த": 2567,
      "ಧ್ಯಕ್ಷ": 2568,
      "ುತ್ತಿದೆ": 2569,
      "हर ": 2570,
      "स्प": 2571,
      "యా ": 2572,
      "न में ": 2573,
      "आवश्यक": 2574,
      " ವ್ಯ": 2575,
      "స్తున్న": 2576,
      "ப்படுகிறது": 2577,
      "சோ": 2578,
      "త్త ": 2579,
      "ூல": 2580,
      "லாம்": 2581,
      "நாட்ட": 2582,
      "ಸಮ": 2583,
      "அதிகார": 2584,
      "ಹಿತ": 2585,
      "கிர": 2586,
      "ಸ್ಯ": 2587,
      "మా ": 2588,
      "श्र": 2589,
      "खु": 2590,
      "லில் ": 2591,
      "ಲಯ": 2592,
      "और क": 2593,
      "अपनी ": 2594,
      "இந்தியாவ": 2595,
      "ನಡೆಸ": 2596,
      "ன்று ": 2597,
      "को ": 2598,
      "సో": 2599,
      "ಅದು ": 2600,
      "ಿಸಿ": 2601,
      "कर": 2602,
      "అంద": 2603,
      "సే": 2604,
      "అధ్య": 2605,
      "பத": 2606,
      "ाने": 2607,
      "దర": 2608,
      "ಮೊ": 2609,
      "ரிவித்த": 2610,
      "ுள்ளன": 2611,
      "ವಹ": 2612,
      "ராஜ": 2613,
      "ಳು": 2614,
      "ಹಲ": 2615,
      "ೀರ": 2616,
      "ಎಂ": 2617,
      "ಸ್ಥಳ": 2618,
      "ఏమిటి": 2619,
      "प्रधान": 2620,
      "ಪೂರ್": 2621,
      "ಮುಂದ": 2622,
      "ತು ": 2623,
      "సూ": 2624,
      "అభి": 2625,
      " ನಿರ್": 2626,
      "व्यक्": 2627,
      "దర్శ": 2628,
      "ಕ್ರಮ": 2629,
      "ప్రభుత్వం ": 2630,
      "ಳೆಯ": 2631,
      "ಿಗಳು ": 2632,
      "அல்லது ": 2633,
      "ಸ್ ": 2634,
      "ज्": 2635,
      "भू": 2636,
      "होगा": 2637,
      "స్తారు": 2638,
      "ರುದ್ಧ": 2639,
      " ದಾ": 2640,
      "்கிற": 2641,
      "ரே": 2642,
      "ಾರ್ಥ": 2643,
      " ಕಾರ್ಯ": 2644,
      "அமைச்ச": 2645,
      "ने के लिए ": 2646,
      "మొద": 2647,
      "సిన ": 2648,
      " ಹೊ": 2649,
      "ड़ी ": 2650,
      "வ்வ": 2651,
      "ೀರ್": 2652,
      "मिल": 2653,
      "्षे": 2654,
      "ೇವ": 2655,
      "க்கு": 2656,
      "अग": 2657,
      "మూ": 2658,
      "ல்வ": 2659,
      "पै": 2660,
      "ಲೋ": 2661,
      "்கள் ": 2662,
      "ೊಲೀಸರು ": 2663,
      "వ్వ": 2664,
      "दर्ज": 2665,
      "ಟ್ ": 2666,
      "तर ": 2667,
      "కల": 2668,
      "நிர": 2669,
      "எம்": 2670,
      "మేము ": 2671,
      "వృ": 2672,
      "ತನ್ನ": 2673,
      "टे": 2674,
      "ತ್ವ": 2675,
      "ఆరో": 2676,
      " करे": 2677,
      "ద్వారా ": 2678,
      "இருப்பினும்": 2679,
      "ों से ": 2680,
      "ಜ್ಞ": 2681,
      "உண": 2682,
      "அறி": 2683,
      "యెహో": 2684,
      "ிலிருந்து ": 2685,
      "ைய ": 2686,
      "సభ": 2687,
      "ಡಿ ": 2688,
      "हुए ": 2689,
      "ార్థ": 2690,
      "ंब": 2691,
      "ಜಾ": 2692,
      " के": 2693,
      "நிக": 2694,
      "முக": 2695,
      "त्व": 2696,
      "రీ": 2697,
      "ವ್ಯ": 2698,
      "ू ": 2699,
      "டெ": 2700,
      "రై": 2701,
      "வள": 2702,
      "பண": 2703,
      "ிஸ்த": 2704,
      "ஒரு": 2705,
      "స్వా": 2706,
      "போலீச": 2707,
      "்ச்சிய": 2708,
      "ர்ந்த": 2709,
      "मन": 2710,
      "ಂಬಂಧ": 2711,
      "ியது": 2712,
      "ಇನ್ನ": 2713,
      "ದ ಅ": 2714,
      "भारती": 2715,
      "అతను ": 2716,
      "వారి ": 2717,
      "నమో": 2718,
      "పాటు ": 2719,
      " के रूप": 2720,
      "్యూ": 2721,
      "టువంటి ": 2722,
      "रक्ष": 2723,
      ":\r\n": 2724,
      "మైన": 2725,
      "भाजपा ": 2726,
      "ఆర్": 2727,
      "ೊಂದು ": 2728,
      "अभि": 2729,
      "ுதிய ": 2730,
      "ுக் க": 2731,
      "తెలు": 2732,
      "మనం ": 2733,
      "అందు": 2734,
      "जीव": 2735,
      "తెలిపారు": 2736,
      "जन": 2737,
      " सर": 2738,
      "12": 2739,
      "ణా": 2740,
      "ఉన్నారు": 2741,
      "ना चाहिए": 2742,
      "एम": 2743,
      "ಯ್": 2744,
      "ద్ర": 2745,
      "ा का ": 2746,
      "சொ": 2747,
      "உள்ள ": 2748,
      "ೂೕ": 2749,
      "నాకు ": 2750,
      "पार": 2751,
      "ची": 2752,
      "वा ": 2753,
      "ாக இருக்க": 2754,
      "। ": 2755,
      " के क": 2756,
      "ంలోని ": 2757,
      "మే ": 2758,
      "స్తున్నారు": 2759,
      "ರ್ ": 2760,
      "गया था": 2761,
      "ఇక్కడ ": 2762,
      "ನಗೆ ": 2763,
      "ை க": 2764,
      "இல்ல": 2765,
      "కాంగ్రెస్ ": 2766,
      "సంద": 2767,
      "ప్పు": 2768,
      "ಲ್ ": 2769,
      "హె": 2770,
      "ర ": 2771,
      "ऐसा ": 2772,
      "भारत": 2773,
      "ப்பட்டுள்ளது": 2774,
      "ಭಾಗ": 2775,
      "प्रभु": 2776,
      "ದ್ಧ": 2777,
      "చేసు": 2778,
      "उपयोग": 2779,
      "ோ ": 2780,
      "நாம் ": 2781,
      "ಲಿದೆ": 2782,
      " ಪಾ": 2783,
      "शुरू": 2784,
      "ொரு ": 2785,
      "చర్య": 2786,
      "ल में ": 2787,
      "महि": 2788,
      "పిల్ల": 2789,
      "ಹೇ": 2790,
      " सि": 2791,
      "மக்கள": 2792,
      "உண்": 2793,
      "ಮಗೆ ": 2794,
      "तक": 2795,
      "ுவன": 2796,
      " ಮೊ": 2797,
      "गई": 2798,
      "दर्श": 2799,
      "ೋಷ": 2800,
      "కృ": 2801,
      "పడ": 2802,
      " ಹೆಚ್ಚ": 2803,
      "बाद": 2804,
      "ओं ": 2805,
      "बु": 2806,
      "इससे ": 2807,
      "ప్రధాని ": 2808,
      "కుంట": 2809,
      " ಕೆಲ": 2810,
      "ப்பட்டது": 2811,
      "ంచి ": 2812,
      "్యం ": 2813,
      "ವಾರ": 2814,
      " ಸು": 2815,
      "మాత్ర": 2816,
      "வாத": 2817,
      " करें": 2818,
      " ಬಳ": 2819,
      "டைந்த": 2820,
      "ಕಾಂಗ್ರೆಸ್": 2821,
      "சீ": 2822,
      "ఘట": 2823,
      "ம்பவ": 2824,
      "000 ": 2825,
      "ಕ್ಕಳ": 2826,
      "హార": 2827,
      "र पर ": 2828,
      "ೇಶ": 2829,
      "ತ್ಮ": 2830,
      "క్రమ": 2831,
      "अध्यक्ष": 2832,
      "நிகழ": 2833,
      "జ్": 2834,
      "வாய": 2835,
      "ோல": 2836,
      "ಹೋಗ": 2837,
      "రిక": 2838,
      "ಖಾ": 2839,
      "వరకు ": 2840,
      "ष ": 2841,
      "उन्होंने कहा कि ": 2842,
      "ಬಳ": 2843,
      "जे": 2844,
      "తు ": 2845,
      " ಹೇಳ": 2846,
      "ರಲ್ಲಿ ": 2847,
      "ానం ": 2848,
      "ದಿ": 2849,
      "जब ": 2850,
      "నాయ": 2851,
      "పాయ": 2852,
      "ங்களை ": 2853,
      "நடவ": 2854,
      "కొత్త ": 2855,
      "நடவடிக்க": 2856,
      "దేవు": 2857,
      "மாற்ற": 2858,
      " किया": 2859,
      "ர்ப்ப": 2860,
      "गई है": 2861,
      "వల్ల": 2862,
      "ప్రతి ": 2863,
      "ாக்க": 2864,
      "சந்த": 2865,
      "ಪ್ರಧಾನ": 2866,
      "चुना": 2867,
      "ప్రపంచ": 2868,
      "కలిగ": 2869,
      "राष्ट": 2870,
      "मत": 2871,
      "తర్": 2872,
      "இன்ன": 2873,
      "அனை": 2874,
      "मुख्य": 2875,
      "మ్ ": 2876,
      "மன்ற": 2877,
      "दान": 2878,
      "ాలలో ": 2879,
      "प्रधानमंत्री ": 2880,
      "ಷಯ": 2881,
      "ಹೊಂದ": 2882,
      "చేసిన ": 2883,
      "పెట్ట": 2884,
      "ೆ ಮಾಡ": 2885,
      "ತಿಳಿಸ": 2886,
      "लोग ": 2887,
      "ళ్": 2888,
      "పించ": 2889,
      "సంబంధ": 2890,
      "गे": 2891,
      "स्वा": 2892,
      "ಥವಾ": 2893,
      "ப்படி ": 2894,
      "शामिल ": 2895,
      "மது ": 2896,
      "மர": 2897,
      "పాల్": 2898,
      "బో": 2899,
      "मैं": 2900,
      "బడ": 2901,
      "पो": 2902,
      "తున్న": 2903,
      "ండ్ ": 2904,
      "ದ್": 2905,
      " ಈ": 2906,
      "னை ": 2907,
      "వంత": 2908,
      "ான்": 2909,
      "குழந்த": 2910,
      "వల": 2911,
      "பின்ன": 2912,
      "మన ": 2913,
      "குற்ற": 2914,
      "டுக்க": 2915,
      "జీ ": 2916,
      "ಿ ಮ": 2917,
      "ಇರ": 2918,
      "ರ್ಶ": 2919,
      "వార్": 2920,
      "ார்க்க": 2921,
      " ಕಾ": 2922,
      "ज्ञ": 2923,
      "நகர": 2924,
      "జర": 2925,
      "வக": 2926,
      "ತಮ್ಮ": 2927,
      "ಶೇ": 2928,
      "ష్ ": 2929,
      "19 ": 2930,
      "య్య": 2931,
      "ர் ம": 2932,
      "दिया": 2933,
      "టె": 2934,
      "ள்வ": 2935,
      "தனது ": 2936,
      "पे": 2937,
      "உலக": 2938,
      "ைப்ப": 2939,
      "మరణ": 2940,
      "ಬಾ": 2941,
      "ों के लिए ": 2942,
      "” ": 2943,
      " ಮೂಲಕ": 2944,
      "திவு ": 2945,
      "फिल्म": 2946,
      "सभी ": 2947,
      "ఫ్ ": 2948,
      "పని": 2949,
      "నియ": 2950,
      "ఒక": 2951,
      "छा": 2952,
      "ವಾಸ": 2953,
      "సహాయ": 2954,
      "ड़ा ": 2955,
      "என்பது ": 2956,
      "ುವುದು": 2957,
      "టీ ": 2958,
      "ोट": 2959,
      "ాలో ": 2960,
      "मी ": 2961,
      "ప్ ": 2962,
      "ನೀವು ": 2963,
      "వాహ": 2964,
      "ಸ್ಥಾನ": 2965,
      "कु": 2966,
      "ோக": 2967,
      "दोन": 2968,
      "ఆమె ": 2969,
      "భాగ": 2970,
      "ఎన్ని": 2971,
      " ಎಂದು ": 2972,
      "மற்ற": 2973,
      "வல": 2974,
      "ைச் ச": 2975,
      "न के ": 2976,
      " ನೀಡ": 2977,
      "जा सक": 2978,
      "ೃತ": 2979,
      "दौ": 2980,
      "दो ": 2981,
      "कृ": 2982,
      "ट्र": 2983,
      "ಿಗಳ": 2984,
      "பாய": 2985,
      "ுகின்றன": 2986,
      "మధ్య": 2987,
      "భారత ": 2988,
      "இருந்தது": 2989,
      "ಿಸಲಾಗ": 2990,
      "వా ": 2991,
      "అధ్యక్ష": 2992,
      "ಧಾರ": 2993,
      "ிச்ச": 2994,
      "ன்படுத்த": 2995,
      "ೀವ": 2996,
      " ಇದ": 2997,
      "ों पर ": 2998,
      "ುತ್ತಾರೆ": 2999,
      "ಎರಡ": 3000,
      "गए": 3001,
      "நம்ப": 3002,
      "बन": 3003,
      "ಜಿ ": 3004,
      "ைப் பற்றி ": 3005,
      "அவர் கூறினார்": 3006,
      "ಗಾ": 3007,
      "ತೆಯ": 3008,
      "ருத்துவ": 3009,
      "डा": 3010,
      "णा": 3011,
      "ந்து": 3012,
      "ఇతర": 3013,
      "ఫో": 3014,
      "उनकी ": 3015,
      "ாண": 3016,
      "ಯು": 3017,
      "ைக்கு ": 3018,
      "ாவது ": 3019,
      "டிவ": 3020,
      "ச் செ": 3021,
      "தற்க": 3022,
      "ಟ್ರ": 3023,
      "ఏ ": 3024,
      "इन": 3025,
      "దాని ": 3026,
      "ಭ್ಯ": 3027,
      "ರಾಷ್ಟ್ರ": 3028,
      "देश ": 3029,
      "నిజ": 3030,
      "साथ": 3031,
      "सबसे ": 3032,
      "పట్ట": 3033,
      "அந்த ": 3034,
      "స్ప": 3035,
      "எழ": 3036,
      "விஷ": 3037,
      "ುನಾ": 3038,
      "மும் ": 3039,
      "ಮುಖ": 3040,
      "....": 3041,
      "పార్ట": 3042,
      "అనేక ": 3043,
      "దాని": 3044,
      "पास ": 3045,
      "ನಗ": 3046,
      "ಸೂ": 3047,
      "குறித்து ": 3048,
      "ொரு": 3049,
      "உரு": 3050,
      "தொடர்ப": 3051,
      "ఉపయో": 3052,
      "ನನ್ನ": 3053,
      "त है": 3054,
      "ರೆಯ": 3055,
      "वल ": 3056,
      "ಿಕೆಯ": 3057,
      "ಮಾಣ": 3058,
      "மத": 3059,
      "కుండ": 3060,
      " के रूप में ": 3061,
      "लु": 3062,
      "ಾರೆ ": 3063,
      "வரை ": 3064,
      "పత్ర": 3065,
      "ట్టి ": 3066,
      "ಮುಖ್ಯ": 3067,
      "ுமா": 3068,
      " कुछ ": 3069,
      "ాడ": 3070,
      "ಸಾಧ್ಯ": 3071,
      "పొంద": 3072,
      "चार ": 3073,
      "பாஜக ": 3074,
      "हमारे ": 3075,
      "இன்னும் ": 3076,
      "अव": 3077,
      "తర్వాత ": 3078,
      "వాద": 3079,
      "ட்டிய": 3080,
      "रा ": 3081,
      "మీకు ": 3082,
      "ಡಾ": 3083,
      "ಆದರೆ": 3084,
      "बार ": 3085,
      "ఆయన అన్నారు": 3086,
      "ಿದೆ ಎಂದು ": 3087,
      "ాలకు ": 3088,
      "ತ್ನ": 3089,
      "తెలియ": 3090,
      "அரசு ": 3091,
      "இரண்டு ": 3092,
      "ಶ್ವ": 3093,
      " से": 3094,
      "इं": 3095,
      "अन्य ": 3096,
      "ಫ್": 3097,
      "आध": 3098,
      "ಅಲ್ಲ": 3099,
      "ख ": 3100,
      "प्त": 3101,
      "ल के ": 3102,
      "ుల్ ": 3103,
      "ನಿಂದ": 3104,
      "ேர்த": 3105,
      "సిద్ధ": 3106,
      "சாய": 3107,
      "ப்பட்ட ": 3108,
      " स्थ": 3109,
      "ప్రే": 3110,
      "సమస్": 3111,
      "ி க": 3112,
      "ವಿಲ್ಲ": 3113,
      "ஷ்": 3114,
      "ించడానికి ": 3115,
      "ிப": 3116,
      "ிக்கு ": 3117,
      "ಕಿ": 3118,
      "ಡುಗ": 3119,
      "தொ": 3120,
      "ஆண்ட": 3121,
      "పాల్గొ": 3122,
      "து என்று ": 3123,
      "ंक": 3124,
      "हाला": 3125,
      "ம் மற்றும் ": 3126,
      "మాత్రమే ": 3127,
      "ారు ": 3128,
      " ಅವರು ": 3129,
      "ாளர்கள": 3130,
      "ஆய": 3131,
      "वह": 3132,
      "குத": 3133,
      "ಗತ್ಯ": 3134,
      "ிங": 3135,
      "ృష్ట": 3136,
      "ప్రధాన ": 3137,
      "రాష్ట్ర": 3138,
      "ಸು ": 3139,
      "ಗ್ರ": 3140,
      "ने कहा कि ": 3141,
      "आर": 3142,
      "చెంది": 3143,
      "நீதிமன்ற": 3144,
      "अभी ": 3145,
      "இண": 3146,
      "ಂಶ": 3147,
      "ರಿ ": 3148,
      "ికి ": 3149,
      "ುನಾವಣ": 3150,
      "गो": 3151,
      "ಾನೆ": 3152,
      "ಗಾರ": 3153,
      "బు": 3154,
      "मा ": 3155,
      "ట్ల ": 3156,
      "மாவ": 3157,
      "ఎన్నిక": 3158,
      "ರೋಗ": 3159,
      "टि": 3160,
      "जु": 3161,
      "शिक्ष": 3162,
      "जी ": 3163,
      "రెండు ": 3164,
      "దీని ": 3165,
      "ಮಂತ್ರ": 3166,
      "ರೀಕ್ಷ": 3167,
      "நிலைய": 3168,
      "அதை ": 3169,
      "பிரதம": 3170,
      "ைக் கொண்ட": 3171,
      "ಮೇ": 3172,
      "इसका ": 3173,
      "త్ ": 3174,
      "ರಾಗ": 3175,
      "फ्": 3176,
      "ఈ చిత్ర": 3177,
      "ಿನಲ್ಲಿ ": 3178,
      "ಪ್ರಕರಣ": 3179,
      "जार": 3180,
      "బడింది": 3181,
      "डि": 3182,
      "నగ": 3183,
      "ना है": 3184,
      "ಲಕ್ಷ": 3185,
      "జీవి": 3186,
      "ఏమి ": 3187,
      " करने के लिए ": 3188,
      "र्थ": 3189,
      "आरो": 3190,
      "కాబ": 3191,
      "ರನ್ನು ": 3192,
      " करने ": 3193,
      "ோது ": 3194,
      "ಕ್ಕಾಗಿ ": 3195,
      "நிறுவன": 3196,
      "खिलाफ ": 3197,
      "ముంద": 3198,
      "ுகளை ": 3199,
      "ద్ద ": 3200,
      "బ్యా": 3201,
      "है ": 3202,
      "ங்கு ": 3203,
      "ೇ": 3204,
      "வருகிறது": 3205,
      "కోర్": 3206,
      "ின்": 3207,
      "बात": 3208,
      "ಭವ": 3209,
      "ாகவும் ": 3210,
      "उम्": 3211,
      "विशे": 3212,
      " करता है": 3213,
      "जाना ": 3214,
      "వి ": 3215,
      "న్ను ": 3216,
      "ಭಿ": 3217,
      "ನಾಯಕ": 3218,
      "ீர்கள்": 3219,
      "ఎవ": 3220,
      "ಂತಹ": 3221,
      "ಅದರ": 3222,
      "आपको ": 3223,
      "விரும்ப": 3224,
      "தோ": 3225,
      " ದಾಖ": 3226,
      "రంగ": 3227,
      "మాట్ల": 3228,
      "ಗೊಳಿಸ": 3229,
      "हा ": 3230,
      "క్ట": 3231,
      " संबंध": 3232,
      "ಣಾ": 3233,
      "ंग ": 3234,
      "ళ్ళ": 3235,
      "చేస్త": 3236,
      "விஷய": 3237,
      "మహి": 3238,
      "जब": 3239,
      "క్రి": 3240,
      "ರಿಯ": 3241,
      "பே": 3242,
      "కొన్ని ": 3243,
      "सो": 3244,
      "సై": 3245,
      "मद": 3246,
      "ा कि": 3247,
      "योज": 3248,
      "कस": 3249,
      "చేయడానికి ": 3250,
      " ಕುರಿ": 3251,
      "क्र": 3252,
      " किया गया है": 3253,
      "ವೈ": 3254,
      "ல்கள": 3255,
      "मिक": 3256,
      "लड़": 3257,
      "இது": 3258,
      "் மீ": 3259,
      "ದೇವರ": 3260,
      "காங்கிரஸ": 3261,
      "ಕಾರ್ಯ": 3262,
      "भग": 3263,
      " ಜನ": 3264,
      "ಗಾಗಿ ": 3265,
      "ा को": 3266,
      "ने के ": 3267,
      "வுள": 3268,
      "ंग्रेस ": 3269,
      "ಮಾರ್": 3270,
      "நோய": 3271,
      "पूर्ण ": 3272,
      "అన్ని ": 3273,
      "లలో ": 3274,
      "కుమార": 3275,
      "ವಾಹ": 3276,
      "வச": 3277,
      "ிருப்ப": 3278,
      "ೋಟ": 3279,
      "ந்தது": 3280,
      "ுக்கு": 3281,
      "வாழ்க்க": 3282,
      "్లో ": 3283,
      " ಸರ್ಕಾರ": 3284,
      "த்து ": 3285,
      "ಿಸಲಾಗಿದೆ": 3286,
      "ிள": 3287,
      "ಿಸಿದೆ": 3288,
      "த்திர": 3289,
      "వారికి ": 3290,
      "డా": 3291,
      "ఎక్కు": 3292,
      "புதிய ": 3293,
      "ಲಿ ": 3294,
      "ಾಪ": 3295,
      "ఫి": 3296,
      "रोध": 3297,
      "ವನ್ನ": 3298,
      "ಅನು": 3299,
      "त में ": 3300,
      "ಂಗಳ": 3301,
      "ಏನು ": 3302,
      "तार": 3303,
      "मोदी ": 3304,
      "ंप": 3305,
      "ற்ச": 3306,
      "முக்க": 3307,
      "भाव": 3308,
      "ानी": 3309,
      "ఆధ": 3310,
      "ಬಾರ": 3311,
      "टर ": 3312,
      "సమయ": 3313,
      "இது ஒரு ": 3314,
      "ಯೆಹೋ": 3315,
      "మోడీ ": 3316,
      "ों और ": 3317,
      "ಇದರಿಂದ": 3318,
      " ಪರಿ": 3319,
      "త్స": 3320,
      "15 ": 3321,
      "पुलिस": 3322,
      "కలిగి ": 3323,
      "जाएगा": 3324,
      "అద": 3325,
      "நடை": 3326,
      "్రా": 3327,
      "ಟ್ಟು ": 3328,
      "ಕೂಡ": 3329,
      "मैंने ": 3330,
      "ఖ ": 3331,
      "சர": 3332,
      "షన్ ": 3333,
      "ில்லை": 3334,
      "बो": 3335,
      "வர்கள் ": 3336,
      "्रीय ": 3337,
      "हमें ": 3338,
      "ವೀ": 3339,
      "పాల": 3340,
      "దీనికి ": 3341,
      "తే": 3342,
      "म में ": 3343,
      "సమావేశ": 3344,
      "కార్": 3345,
      " ಸ್": 3346,
      "तै": 3347,
      "ల్లో ": 3348,
      " ಗು": 3349,
      "చెప్పారు": 3350,
      "వృద్ధ": 3351,
      "ರಂಭ": 3352,
      "கால": 3353,
      "ುಂಬ": 3354,
      "இந்தியா ": 3355,
      "ங்களுக்கு ": 3356,
      "भाग ": 3357,
      " ಕೈ": 3358,
      "స్థిత": 3359,
      "மற": 3360,
      "ಿಸ್ತ": 3361,
      "ದೊ": 3362,
      "ಎಂದರು": 3363,
      "दिया है": 3364,
      "खे": 3365,
      "ப்படவில்லை": 3366,
      "அரசிய": 3367,
      "ండ్ర": 3368,
      "ಪೊಲೀಸರು ": 3369,
      "ெற்ற": 3370,
      "ನಿಯ": 3371,
      "पत्": 3372,
      " வேண்டும் என்று ": 3373,
      "ಆದ": 3374,
      "ன் ப": 3375,
      "मामला ": 3376,
      "கட்ட": 3377,
      "ಹ್": 3378,
      " स्ट": 3379,
      "जिस": 3380,
      "కేసు ": 3381,
      "நாள": 3382,
      "ष्ठ": 3383,
      "న్లో ": 3384,
      "மத்த": 3385,
      "15": 3386,
      "சி ": 3387,
      " करना ": 3388,
      "ಿದ್ದು ": 3389,
      "ಾಯಿತು": 3390,
      "ज़": 3391,
      "ண்டும் ": 3392,
      "ಸೇ": 3393,
      "दूसर": 3394,
      "होता है": 3395,
      "ೋದಿ ": 3396,
      "आग": 3397,
      "ಲ್ಲಾ": 3398,
      "लय": 3399,
      "நல்ல": 3400,
      ",000 ": 3401,
      "वान": 3402,
      " ಪು": 3403,
      "కాశ": 3404,
      "பெற": 3405,
      "ఇవ్వ": 3406,
      "ிக்க ": 3407,
      "ाया": 3408,
      "ಲ್ಪ": 3409,
      "పద": 3410,
      "पड़": 3411,
      "कारी ": 3412,
      "జిల్ల": 3413,
      "బై": 3414,
      "ిని ": 3415,
      "ಕ್ಷೇ": 3416,
      "ிகளில் ": 3417,
      "अलग": 3418,
      "ारण ": 3419,
      "दौर": 3420,
      "అమ": 3421,
      "తీయ ": 3422,
      "அனைத்து ": 3423,
      "முழ": 3424,
      "లై": 3425,
      "ಡ್ ": 3426,
      "ई है": 3427,
      "என்": 3428,
      "यह स": 3429,
      "ನಂತರ": 3430,
      "சம்பவ": 3431,
      "ఇచ్చ": 3432,
      " ಇಲ್ಲ": 3433,
      "మహిళ": 3434,
      "చు": 3435,
      "் தலை": 3436,
      "ప్రాంత": 3437,
      "ರೇ": 3438,
      "ಂಥ": 3439,
      "అవసరం ": 3440,
      "ந்து கொண்ட": 3441,
      "ಹಾಕ": 3442,
      "उम्मी": 3443,
      "விழ": 3444,
      "पुर": 3445,
      "యోజ": 3446,
      "ನನಗೆ ": 3447,
      "வேறு ": 3448,
      "ಆರ್": 3449,
      "100 ": 3450,
      "ఎస్ ": 3451,
      "ಗಳಿಂದ": 3452,
      " ಫ": 3453,
      "నిర్ణ": 3454,
      "ேட": 3455,
      " करते हैं": 3456,
      "ಯೋಗ": 3457,
      "ోని ": 3458,
      "த் ": 3459,
      "ಬಿಜೆಪಿ ": 3460,
      "कर्": 3461,
      "కంటే ": 3462,
      "एन": 3463,
      "ುದ್ದ": 3464,
      " ಮುಖ್ಯ": 3465,
      "రక్ష": 3466,
      "తీసుకు": 3467,
      "प्रदर्श": 3468,
      "ைப்பட": 3469,
      "ಮತ್ತ": 3470,
      "எது": 3471,
      "చూడ": 3472,
      " की है": 3473,
      "ಕಾಶ": 3474,
      "ன் க": 3475,
      "ுவது ": 3476,
      "லட்ச": 3477,
      "ों को": 3478,
      "ఇంట": 3479,
      "దై": 3480,
      "ச்சின": 3481,
      "ால் ப": 3482,
      "ாச": 3483,
      "ரீ": 3484,
      "లోని ": 3485,
      "ప్రదేశ": 3486,
      "వ్యవ": 3487,
      "ಕಾರಣ": 3488,
      "ದಿನ": 3489,
      "రూ ": 3490,
      "ట ": 3491,
      " ಸಹ": 3492,
      "ிக்கை ": 3493,
      "यहाँ ": 3494,
      "ினர்": 3495,
      "వ్ ": 3496,
      "செய்வ": 3497,
      "ட்ட ": 3498,
      "ணக்க": 3499,
      "ವಿಧ": 3500,
      "ಟರ್": 3501,
      "ప్రత్య": 3502,
      "ప్రక": 3503,
      "ோட்ட": 3504,
      "விசாரண": 3505,
      "ఈ విషయ": 3506,
      "మొత్త": 3507,
      "ನಿಗೆ ": 3508,
      "ंस": 3509,
      "வெற்றி ": 3510,
      "ంప": 3511,
      "ంద్ర": 3512,
      "ುತ್ತೇ": 3513,
      "ாவில் ": 3514,
      "కొన": 3515,
      "शी": 3516,
      "ನಿಖ": 3517,
      "उसे ": 3518,
      "దల ": 3519,
      "சாங்க": 3520,
      "ುತ್ತಿದ್ದ": 3521,
      "வீர": 3522,
      "ಉಪ": 3523,
      "निक": 3524,
      "ுகிறார்": 3525,
      "ಇದನ್ನು ": 3526,
      "చేసింది": 3527,
      "மட்டும": 3528,
      "பாட": 3529,
      "நீங்கள": 3530,
      " ಬೇ": 3531,
      "துற": 3532,
      "उसके ": 3533,
      "ರವ": 3534,
      "मान ": 3535,
      "నకు ": 3536,
      "यू": 3537,
      "அரசாங்க": 3538,
      "షి": 3539,
      "గాయ": 3540,
      "விவ": 3541,
      "बद": 3542,
      "నీ ": 3543,
      "సంత": 3544,
      "் மூல": 3545,
      "ते हैं ": 3546,
      "ने वाले ": 3547,
      "తులు ": 3548,
      "రం ": 3549,
      " सी": 3550,
      "इसलिए ": 3551,
      "ைகளை ": 3552,
      "ಗೊಳ್ಳ": 3553,
      "ி மற்றும் ": 3554,
      "ాల్లో ": 3555,
      "ಅದನ್ನು ": 3556,
      "కం ": 3557,
      "நமது ": 3558,
      "తారు": 3559,
      "తరు": 3560,
      " ಭಾರತ": 3561,
      "సమాచార": 3562,
      "நிய": 3563,
      "త్వ ": 3564,
      "ాము": 3565,
      "విడు": 3566,
      "ఎన్": 3567,
      "इस तरह": 3568,
      "ಡೆದ": 3569,
      " ರೀ": 3570,
      "యెహోవా ": 3571,
      "ராக": 3572,
      "ఇద్ద": 3573,
      "போன்ற": 3574,
      "ार ": 3575,
      "ఆరోగ": 3576,
      " किए ": 3577,
      "అత్య": 3578,
      "1.": 3579,
      "ल क": 3580,
      "ಷ್ಠ": 3581,
      "నో": 3582,
      "क्त ": 3583,
      "14": 3584,
      "ఎందుకు ": 3585,
      "इन ": 3586,
      "ಿಸಿಕೊಂಡ": 3587,
      "ಂದರೆ ": 3588,
      "அக": 3589,
      "గె": 3590,
      "जै": 3591,
      "ரூபாய": 3592,
      "ನಡೆಯ": 3593,
      "ತುಂಬ": 3594,
      "% ": 3595,
      "ெற": 3596,
      "సర్": 3597,
      "డీ": 3598,
      "गिर": 3599,
      "ೆಯೇ": 3600,
      "గం ": 3601,
      "రూపాయ": 3602,
      "சத": 3603,
      "भारतीय ": 3604,
      "बाइ": 3605,
      " ಸಚಿ": 3606,
      " ವಿರುದ್ಧ": 3607,
      "पुलिस ने ": 3608,
      "भी क": 3609,
      "எனவே": 3610,
      "உதவ": 3611,
      "எண்ண": 3612,
      "ಗೋ": 3613,
      "ప్రకట": 3614,
      " ಏ": 3615,
      "ஒவ்வ": 3616,
      "ெட்ட": 3617,
      "కులు ": 3618,
      "ంకా ": 3619,
      "ఎటువంటి ": 3620,
      "ிப்பு ": 3621,
      "ித்தார்": 3622,
      "ಈಗ": 3623,
      "வித": 3624,
      "ಬೇಕು ": 3625,
      "वाद": 3626,
      "ವಿರ": 3627,
      "కుండా ": 3628,
      "अला": 3629,
      "ने का ": 3630,
      "ாந்த": 3631,
      "ರೈ": 3632,
      "మంచి ": 3633,
      "స్థాన": 3634,
      "మధ్య ": 3635,
      "எல்ல": 3636,
      "தொழ": 3637,
      " ಅವ": 3638,
      "अस्प": 3639,
      "గుర్": 3640,
      "ఇంకా ": 3641,
      "తొ": 3642,
      "ಸರ್ಕಾರ": 3643,
      "ிடம் ": 3644,
      " ದಿನ": 3645,
      "ஒப்ப": 3646,
      "ದಾಖ": 3647,
      "मुख्यमंत्री ": 3648,
      "ಭಾವ": 3649,
      "ರೋಪ": 3650,
      "நாங்கள் ": 3651,
      "వు ": 3652,
      "यह एक ": 3653,
      "कू": 3654,
      "ுதல் ": 3655,
      "சிக": 3656,
      "வன": 3657,
      "लिया": 3658,
      "ಪೂರ್ಣ": 3659,
      "ಮೀ": 3660,
      "ाना ": 3661,
      "ருத்துவமன": 3662,
      "யன்படுத்த": 3663,
      "ಾಟ": 3664,
      " ಹಾಗೂ ": 3665,
      "நித": 3666,
      "అవు": 3667,
      "ट्ट": 3668,
      "हों": 3669,
      "வர்": 3670,
      "ேய": 3671,
      "್ಯಾರ್ಥ": 3672,
      "न्न": 3673,
      "விவசாய": 3674,
      "पता ": 3675,
      "ಸ್ಪತ್ರ": 3676,
      "ನಾಡ": 3677,
      "ம் சா": 3678,
      "30 ": 3679,
      "வீட்ட": 3680,
      "ೋರ್": 3681,
      "ी और ": 3682,
      "கூற": 3683,
      "अस्पता": 3684,
      "உயிர": 3685,
      "ాల్సిన ": 3686,
      "తోంది": 3687,
      "लिया ": 3688,
      "ंद ": 3689,
      "हूं": 3690,
      "12 ": 3691,
      "ல் ம": 3692,
      "ிருக்க": 3693,
      "ರಿಕ": 3694,
      "గౌ": 3695,
      "కార్యక్రమ": 3696,
      "ೂ ಕ": 3697,
      "்வா": 3698,
      "విద్యార్థ": 3699,
      "త్మ": 3700,
      "ையாக ": 3701,
      "ಣೆ ": 3702,
      "ಲ್ಯ": 3703,
      " ವಿಷಯ": 3704,
      "అతని ": 3705,
      " किया है": 3706,
      "दा ": 3707,
      "00": 3708,
      "ದರ್ಶ": 3709,
      "ಪರ್": 3710,
      "डॉ": 3711,
      "తీవ": 3712,
      "ீட": 3713,
      "ೊಬ್ಬ": 3714,
      "ప్రమా": 3715,
      "మారు": 3716,
      "தும் ": 3717,
      "ఉత్త": 3718,
      "க்கிய": 3719,
      "ರೋಗ್ಯ": 3720,
      "రి ": 3721,
      "కేసు నమో": 3722,
      "ಹೊಸ": 3723,
      "ೃದ್ಧ": 3724,
      "ಲ್ಲಿ": 3725,
      "్లు ": 3726,
      " ಟ": 3727,
      "ించి ": 3728,
      "నలు ": 3729,
      "எல்": 3730,
      "கொ": 3731,
      "నట": 3732,
      "மாண": 3733,
      "కుటు": 3734,
      "అంటే ": 3735,
      "த்த ": 3736,
      "ಿಯೇ": 3737,
      "पार्ट": 3738,
      "జ్ ": 3739,
      "ಹೇಳಿದರು": 3740,
      "ட்சிய": 3741,
      "కుటుంబ": 3742,
      "ாளர் ": 3743,
      "் தொட": 3744,
      "భావ": 3745,
      "ண்கள": 3746,
      "ఏర్": 3747,
      "विका": 3748,
      "टर": 3749,
      "हो सक": 3750,
      "ఆసు": 3751,
      "दे ": 3752,
      "ప్రశ్": 3753,
      "ఆసుపత్ర": 3754,
      "ிச": 3755,
      "பார": 3756,
      "తగ్": 3757,
      "नेता ": 3758,
      "ద్ ": 3759,
      "हाँ": 3760,
      "ತೆಗೆ ": 3761,
      "எதுவும் ": 3762,
      "் தன": 3763,
      "முறை ": 3764,
      "ಕೀಯ": 3765,
      "స్వ": 3766,
      "ಶೀ": 3767,
      "ತಿಕ": 3768,
      "ஒன்ற": 3769,
      "హిత": 3770,
      "ముఖ్యమంత్రి ": 3771,
      "ర్భ": 3772,
      "వేయ": 3773,
      "కాబట్టి ": 3774,
      "ೆಯಾಗ": 3775,
      "ट्": 3776,
      "स के ": 3777,
      "जू": 3778,
      "యే": 3779,
      "యూ": 3780,
      "पहु": 3781,
      " ಕಾರಣ": 3782,
      "चे": 3783,
      "सरकार ": 3784,
      "ಿರಲಿಲ್ಲ": 3785,
      "லிய": 3786,
      "ಸ್ಥಿತ": 3787,
      "ముందు ": 3788,
      "दार ": 3789,
      "యి": 3790,
      "ಪಾದ": 3791,
      "అలా": 3792,
      " மோ": 3793,
      "சிய": 3794,
      "ಂದರ್": 3795,
      "ಇದರ": 3796,
      "విశ్": 3797,
      "జరుగు": 3798,
      "எனக்கு ": 3799,
      "ಶ್ರೀ": 3800,
      "నిర": 3801,
      "நடிக": 3802,
      "ाया ": 3803,
      "కొనసా": 3804,
      "ಕ್ಯಾ": 3805,
      "निर्मा": 3806,
      "రక": 3807,
      "ர்க்க": 3808,
      "ంపై ": 3809,
      "உருவாக்க": 3810,
      "ಿ ಮತ್ತು ": 3811,
      "ிடைக்க": 3812,
      "ంగా": 3813,
      "போலீசார": 3814,
      "நின": 3815,
      "ते हुए ": 3816,
      "சூ": 3817,
      "ಡೆ ": 3818,
      "பர": 3819,
      "ింత ": 3820,
      "ிக்கிற": 3821,
      "தேவ": 3822,
      "हुए": 3823,
      "్లా": 3824,
      "సంస్థ": 3825,
      "ಇದೆ": 3826,
      "ிக்கப்பட": 3827,
      "ம் என்று ": 3828,
      "పరిస్థిత": 3829,
      "உங்கள் ": 3830,
      "ವಿದೆ": 3831,
      "ಕೃ": 3832,
      "ंगा": 3833,
      "ಂಜ": 3834,
      "రణ": 3835,
      "ిలో ": 3836,
      "ించే ": 3837,
      "ఇతర ": 3838,
      "्यक्र": 3839,
      "பூ": 3840,
      "स्व": 3841,
      "ಂತ್": 3842,
      "प्रे": 3843,
      "சில ": 3844,
      "ారా": 3845,
      "वाह": 3846,
      "ಿಸುತ್ತದೆ": 3847,
      "மாற": 3848,
      "అని అన్నారు": 3849,
      "ால் க": 3850,
      "मामला दर्ज": 3851,
      "்ஸ": 3852,
      "ఒక్క": 3853,
      "ಬೈ": 3854,
      "் தே": 3855,
      "అభ్య": 3856,
      "ಂದ್ಯ": 3857,
      "ियों को ": 3858,
      "ர்ந்து ": 3859,
      "செயல்ப": 3860,
      "लेकिन": 3861,
      "लै": 3862,
      "ಕೇಳ": 3863,
      "வைத்த": 3864,
      "மா ": 3865,
      "फै": 3866,
      "फो": 3867,
      "ு பதிவு ": 3868,
      "ுறை ": 3869,
      "భూ": 3870,
      "ಕೇಂದ್ರ": 3871,
      "கல": 3872,
      " ಕೆಲಸ": 3873,
      "ಮಾಜ": 3874,
      "தகவ": 3875,
      "ಳಗ": 3876,
      "ணம் ": 3877,
      "ర్కొ": 3878,
      "क्त": 3879,
      "గు ": 3880,
      "சட்ட": 3881,
      "నిర్వహ": 3882,
      "महत्व": 3883,
      "विरोध": 3884,
      "दिन ": 3885,
      "ீழ": 3886,
      "ಕೈ": 3887,
      "विश्वा": 3888,
      "अध्यक्ष ": 3889,
      "ंत ": 3890,
      " ಯ": 3891,
      "बता": 3892,
      "ంగీ": 3893,
      "ಭಾಷ": 3894,
      "జ్ఞ": 3895,
      "ஆர்": 3896,
      " की आवश्यक": 3897,
      "ைது ": 3898,
      "ರ್ಜ": 3899,
      "అవకాశ": 3900,
      "வந்த": 3901,
      "ఫల": 3902,
      "அனும": 3903,
      "ಹಾಗೂ ": 3904,
      "दिल्": 3905,
      "మరింత ": 3906,
      "காய": 3907,
      "ుకోవ": 3908,
      "ನೋಡ": 3909,
      "తెలుసు": 3910,
      "வழக்கு பதிவு ": 3911,
      "మొదటి ": 3912,
      "ा में ": 3913,
      "इसमें ": 3914,
      "இது குறித்து ": 3915,
      "? ": 3916,
      "బడ్డ": 3917,
      "ಪ್ರತಿ": 3918,
      "ாதார": 3919,
      "ఇలా ": 3920,
      "अब ": 3921,
      "ಕ್ಷೇತ್ರ": 3922,
      "பெய": 3923,
      "உறுத": 3924,
      "స్టేష": 3925,
      "ಳು ": 3926,
      "ಳಿ ": 3927,
      "ఉపయోగించ": 3928,
      "ಮಕ್ಕಳ": 3929,
      "है कि ": 3930,
      "వల్ల ": 3931,
      "ಈ ಸ": 3932,
      "जांच": 3933,
      "ಈ ಬಗ್ಗೆ ": 3934,
      "शो": 3935,
      "வெளி": 3936,
      "ಎಂಬುದ": 3937,
      "जा सकता है": 3938,
      "जवा": 3939,
      "वै": 3940,
      "யற்ச": 3941,
      "தொடர்பாக ": 3942,
      "கு ": 3943,
      "జరగ": 3944,
      "18": 3945,
      "ಮಾತ್ರ": 3946,
      "సమస్య": 3947,
      "ఉత్": 3948,
      "रुपये": 3949,
      " ಪಕ್ಷ": 3950,
      "చెందిన ": 3951,
      " ಹಿ": 3952,
      " ಹಾಗೂ": 3953,
      "ಯೋಜ": 3954,
      "நிகழ்ச்ச": 3955,
      "ఎవర": 3956,
      "పడి": 3957,
      "लिए": 3958,
      "போட்ட": 3959,
      "श्च": 3960,
      "ऐस": 3961,
      "पूर": 3962,
      "తమ ": 3963,
      "टा": 3964,
      "ಲೂ": 3965,
      "ಒಂದ": 3966,
      " क्या ": 3967,
      "లె": 3968,
      "13": 3969,
      "இடைய": 3970,
      "25 ": 3971,
      "ுர": 3972,
      "ಸಭ": 3973,
      "ನಾಗ": 3974,
      "ళూ": 3975,
      "ர்த்த": 3976,
      "ఖా": 3977,
      "ಅಪ": 3978,
      "ರ್ಮ": 3979,
      "ಟುಂಬ": 3980,
      "धार": 3981,
      "ಹಿಂದ": 3982,
      "பாக": 3983,
      "மாக": 3984,
      "రేంద్ర ": 3985,
      "ారని ": 3986,
      "ಷ್ಯ": 3987,
      "ప్పటికీ ": 3988,
      "ದ ವಿ": 3989,
      "శు": 3990,
      "ವೆ ": 3991,
      "वास्त": 3992,
      "பாது": 3993,
      " की": 3994,
      "రాజకీ": 3995,
      "ಇಲ್ಲಿ ": 3996,
      "తల్ల": 3997,
      "ಕರು ": 3998,
      "दिन": 3999,
      "పెద్ద ": 4000,
      "व्यव": 4001,
      "की": 4002,
      "ॉर्": 4003,
      "ர்வு ": 4004,
      "दोनों ": 4005,
      "இதன": 4006,
      "इस संबंध": 4007,
      "तरह ": 4008,
      "र के ": 4009,
      "லி": 4010,
      "మూడ": 4011,
      "ा कर ": 4012,
      "డుతుంది": 4013,
      "ுவதற்க": 4014,
      "பிற": 4015,
      "விளைய": 4016,
      "எப்படி ": 4017,
      " कु": 4018,
      "ಿರುವ ": 4019,
      " से क": 4020,
      "ரிச": 4021,
      "ప్రత్యే": 4022,
      "लोगों को ": 4023,
      "మొత్తం ": 4024,
      "किस्त": 4025,
      "సభ్య": 4026,
      "क्स": 4027,
      "వెళ్ల": 4028,
      "సరి": 4029,
      "्षेत्र": 4030,
      "नरे": 4031,
      "తప్ప": 4032,
      "ಂಗ್ ": 4033,
      "मार ": 4034,
      "ದ ಸ": 4035,
      "ಿಸಿದ್ದ": 4036,
      "ನಿಮಾ": 4037,
      "भाग": 4038,
      "एल": 4039,
      "ராய": 4040,
      "பாதுகா": 4041,
      "் பிர": 4042,
      "பின்னர் ": 4043,
      "ம் சாட்ட": 4044,
      "ंत्र": 4045,
      "பால": 4046,
      "గల": 4047,
      "இழ": 4048,
      "புக": 4049,
      "బాల": 4050,
      "ితో ": 4051,
      "ించడం ": 4052,
      "ग्रा": 4053,
      "ंकि": 4054,
      "வில் ": 4055,
      "लें": 4056,
      "ತಿಳಿದ": 4057,
      "करो": 4058,
      "ाम": 4059,
      "जाना चाहिए": 4060,
      "ரேந்திர": 4061,
      "ಅವರಿಗೆ ": 4062,
      "యత్": 4063,
      "రాష్ట్ర ": 4064,
      "ಿನ ": 4065,
      "चाह": 4066,
      "तो": 4067,
      "पाकिस्त": 4068,
      "ாஜ": 4069,
      "வற்ற": 4070,
      "ட்சி ": 4071,
      "ಕ ": 4072,
      "ರ್ಚ": 4073,
      "ದ ಪ್ರ": 4074,
      "शिक": 4075,
      "जिन": 4076,
      "ఎదు": 4077,
      "த்திய": 4078,
      "वाई": 4079,
      "ాయి ": 4080,
      "ंदि": 4081,
      "ುತ": 4082,
      "வில்லை ": 4083,
      " ತೆ": 4084,
      "గాంధ": 4085,
      "ோன": 4086,
      "முதல் ": 4087,
      "ಭಿವ": 4088,
      "ಮೆ ": 4089,
      "ಲಿಯ": 4090,
      "ೀತ": 4091,
      " ನೆ": 4092,
      "ற்று": 4093,
      "திட்ட": 4094,
      "ಸಿದ": 4095,
      " ಗಾ": 4096,
      "పాఠ": 4097,
      "ಅಂತ": 4098,
      "ಬಂಧ": 4099,
      "ड़े ": 4100,
      "ಠಾಣ": 4101,
      "बीच ": 4102,
      "చర్యలు ": 4103,
      "ಕ್ಕೂ": 4104,
      "ுமார் ": 4105,
      "ோர் ": 4106,
      "మత": 4107,
      "వెంట": 4108,
      " ಕುರಿತು ": 4109,
      "वी ": 4110,
      "వారిని ": 4111,
      "ರೇಂದ್ರ": 4112,
      "ையாள": 4113,
      " ಇರ": 4114,
      "అధ్యక్షుడు ": 4115,
      "ಸೆ ": 4116,
      "ప్రయత్": 4117,
      "ಪಕ್ಷ": 4118,
      "విజయ": 4119,
      "वार ": 4120,
      " ಹಾ": 4121,
      "ಯತ್ನ": 4122,
      "ிகளை ": 4123,
      "ೃಷ್ಟ": 4124,
      "అభివృద్ధ": 4125,
      "16": 4126,
      "కని": 4127,
      "உத்த": 4128,
      "द्य": 4129,
      "ులతో ": 4130,
      "చిక": 4131,
      " के बारे में ": 4132,
      "குட": 4133,
      "తంగా ": 4134,
      "ಜಿಲ್ಲ": 4135,
      "पूरी ": 4136,
      "ேர்": 4137,
      "गांध": 4138,
      "பொரு": 4139,
      "్యాప్": 4140,
      "समय ": 4141,
      "फा": 4142,
      "लगा": 4143,
      "बैठ": 4144,
      "ாவல் ": 4145,
      "ंद्र": 4146,
      "తాయి": 4147,
      "ಜ್ಞಾನ": 4148,
      "ப்போது ": 4149,
      "செலுத்த": 4150,
      "ியாக ": 4151,
      "इंड": 4152,
      "ನೆಗೆ ": 4153,
      "நரேந்திர": 4154,
      "ಇದಕ್ಕೆ ": 4155,
      "ಿಂತ": 4156,
      "ுமார": 4157,
      "కంగా ": 4158,
      "నరేంద్ర ": 4159,
      "எடுத்த": 4160,
      "வாய்ப்ப": 4161,
      "यात्र": 4162,
      "அடி": 4163,
      "சமூ": 4164,
      "ನಾಟ": 4165,
      "தெரிவித்த": 4166,
      "गए हैं": 4167,
      "அனைவரும் ": 4168,
      "ಹಣ": 4169,
      "गिरफ्": 4170,
      "பேச": 4171,
      "న్యాయ": 4172,
      "ఆర్థ": 4173,
      "విడుదల ": 4174,
      "ரில் ": 4175,
      "ேட்ட": 4176,
      "కపో": 4177,
      "ప్రస్తు": 4178,
      "ంశ": 4179,
      "பாத": 4180,
      "క్రీ": 4181,
      "ದುಕೊಂಡ": 4182,
      "ుకో": 4183,
      "ஆகியோர": 4184,
      "ತೋ": 4185,
      "ిల్ల": 4186,
      "ణం ": 4187,
      "ியுள்ளது": 4188,
      "स्य": 4189,
      "ுக்கான ": 4190,
      "మాజీ ": 4191,
      "ஏற்படுத்த": 4192,
      "హు": 4193,
      "ುತ್ತವೆ": 4194,
      "ిక్ ": 4195,
      "நாய": 4196,
      "ప్ట": 4197,
      "బ్ర": 4198,
      "రోజు ": 4199,
      "ಳಿದ": 4200,
      "ಮಾತ": 4201,
      "अगर ": 4202,
      "ంట్ ": 4203,
      "ले में ": 4204,
      "కిస్త": 4205,
      "ಶಸ್": 4206,
      "ताओं": 4207,
      "नाट": 4208,
      "ಂಕ್": 4209,
      "சிர": 4210,
      "ಿಸಿಕೊಳ್ಳ": 4211,
      "తలు ": 4212,
      "ಿದ್ದೇನೆ": 4213,
      "डिय": 4214,
      "తిని ": 4215,
      "उस ": 4216,
      "त्म": 4217,
      "डे": 4218,
      "లి ": 4219,
      "చర్చ": 4220,
      "ప్రతి ఒక్క": 4221,
      "தயார": 4222,
      "चल": 4223,
      "ிழ்ச்சிய": 4224,
      "ಎನ್": 4225,
      "ल की ": 4226,
      "तीन ": 4227,
      "தாக": 4228,
      "దర్యాప్": 4229,
      "ಗಳನ್ನ": 4230,
      "மீண்டும் ": 4231,
      "கோவ": 4232,
      "ಖಂಡ": 4233,
      "க்கள் ": 4234,
      "ுகிறார்கள்": 4235,
      "நரேந்திர மோ": 4236,
      "టర్": 4237,
      "భవ": 4238,
      "லி ": 4239,
      "జో": 4240,
      "आपके ": 4241,
      ", \r\n": 4242,
      "ு வர": 4243,
      "200 ": 4244,
      "ಉತ್ತರ": 4245,
      "అభ్యర్థ": 4246,
      "समा": 4247,
      "ுச் செ": 4248,
      "ிக்கும் ": 4249,
      " ஆ": 4250,
      "रण": 4251,
      "ஸ்க": 4252,
      "ರಿಗ": 4253,
      "ಬಲ": 4254,
      "ಿತ್": 4255,
      "40 ": 4256,
      " ಹಿಂದ": 4257,
      "राजनी": 4258,
      "उनका ": 4259,
      "ஜே": 4260,
      "ரை ": 4261,
      "ஜன": 4262,
      "இதற்கு ": 4263,
      "ర్యా": 4264,
      "छात्र": 4265,
      "ೀವನ": 4266,
      "ುತ್ತಿದ್ದಾರೆ": 4267,
      "ग्र": 4268,
      "नु": 4269,
      "உத": 4270,
      "ஸ்ப": 4271,
      "న్స్ ": 4272,
      "తిరే": 4273,
      " வேண்டா": 4274,
      "వ్యతిరే": 4275,
      "ின்ப": 4276,
      "ిగా ": 4277,
      "ಾರಿ ": 4278,
      "पद": 4279,
      " कह": 4280,
      "ఢిల్ల": 4281,
      "ವಾದ ": 4282,
      "नौ": 4283,
      "నను ": 4284,
      "्यू": 4285,
      "ंच ": 4286,
      "अधिकार": 4287,
      "முன்ப": 4288,
      "बॉ": 4289,
      "म से ": 4290,
      "ண்ணீ": 4291,
      "దానిని ": 4292,
      "க்த": 4293,
      " ಸಮಯ": 4294,
      "एं ": 4295,
      "ಿಸಿದ್ದರು": 4296,
      "प्रमुख": 4297,
      "्यों": 4298,
      "రెస్ట": 4299,
      "तिक": 4300,
      "மொழ": 4301,
      "ಕಂಡ": 4302,
      " क्या है": 4303,
      "ನಾಲ್": 4304,
      "होगी": 4305,
      "ప్రజలు ": 4306,
      "தில் ": 4307,
      "ದಿ ": 4308,
      "ಾದರ": 4309,
      "టో": 4310,
      "க்கம் ": 4311,
      "ட்": 4312,
      " ಕ್ರಮ": 4313,
      "தம் ": 4314,
      "साम": 4315,
      "హ్": 4316,
      "ைச் ": 4317,
      "ಕ್ಸ್": 4318,
      "ையின் ": 4319,
      "வங்க": 4320,
      "ಕಾಣ": 4321,
      "పడ్డ": 4322,
      "ணி ": 4323,
      " की क": 4324,
      "ாவின் ": 4325,
      "டெல்ல": 4326,
      "ವಲ್ಲ": 4327,
      "उम्मीद": 4328,
      "ಿಕಾ": 4329,
      "పాల్గొన్నారు": 4330,
      "కోర్టు ": 4331,
      "ವ್": 4332,
      "वर्त": 4333,
      "உள்ளனர்": 4334,
      "ಗಣ": 4335,
      "स्थित ": 4336,
      "वृ": 4337,
      "र्च": 4338,
      "ಹಾಗೂ": 4339,
      " के खिलाफ ": 4340,
      "చేసి ": 4341,
      "ಂದರ್ಭ": 4342,
      "ರೇಂದ್ರ ಮ": 4343,
      "தூ": 4344,
      "ಸಂಬಂಧ": 4345,
      "డియ": 4346,
      "व में ": 4347,
      "உத்தர": 4348,
      "అప్పుడు ": 4349,
      "జు": 4350,
      "ವೇಶ": 4351,
      "फिल्म ": 4352,
      "उसक": 4353,
      "ட்ப": 4354,
      "கோடி ": 4355,
      "் தெரிவித்த": 4356,
      "మని ": 4357,
      "स्वी": 4358,
      "அறிவ": 4359,
      " ಮುಂದ": 4360,
      "रुपये ": 4361,
      "लॉ": 4362,
      "एँ ": 4363,
      "ఉంచ": 4364,
      "इत": 4365,
      "ோச": 4366,
      "యోగ": 4367,
      "ದ ಆ": 4368,
      "ತೆಗೆ": 4369,
      "ಿ ನ": 4370,
      " ಪ್ರದೇಶ": 4371,
      "ಭೂ": 4372,
      "வய": 4373,
      "ಗೌ": 4374,
      "పాకిస్త": 4375,
      "मेरे ": 4376,
      "ಸೋ": 4377,
      "யெ": 4378,
      "் தனது ": 4379,
      "ಗ್ರಾ": 4380,
      "ುವಂತೆ ": 4381,
      "క్ష ": 4382,
      "మ్యా": 4383,
      "ಿಸಲ": 4384,
      "ச்சார": 4385,
      "जग": 4386,
      "வாக": 4387,
      "கடவுள": 4388,
      "పరీ": 4389,
      "ಶೇಷ": 4390,
      "ಿ ಆ": 4391,
      "வண": 4392,
      "த்தின் ப": 4393,
      " முடியாது": 4394,
      "ஒவ்வொரு ": 4395,
      " ನಡುವ": 4396,
      "होती है": 4397,
      "इसके अला": 4398,
      "இருந்து ": 4399,
      "ಮಂದ": 4400,
      "తో": 4401,
      "జరిగింది": 4402,
      "க்கூட": 4403,
      "ಲೋಕ": 4404,
      "ित किया ": 4405,
      "జాతీయ ": 4406,
      "उन ": 4407,
      "மெ": 4408,
      "र से ": 4409,
      "చేసుకు": 4410,
      "ஊழ": 4411,
      "తీవ్ర": 4412,
      "उठ": 4413,
      "11 ": 4414,
      "ರಿನ": 4415,
      "ಹೇಗೆ ": 4416,
      "ದ ಮ": 4417,
      "సే ": 4418,
      " ಶಿ": 4419,
      "ಕೋಟಿ ": 4420,
      "இல": 4421,
      "పోలీస్ ": 4422,
      "ದುಕೊಳ್ಳ": 4423,
      "ಮಾನ್ಯ": 4424,
      "ಗಳು ಮತ್ತು ": 4425,
      "ने कहा": 4426,
      "ால் ம": 4427,
      "రుకు": 4428,
      "ಭಾರತೀಯ": 4429,
      "परी": 4430,
      "தில": 4431,
      "సుల": 4432,
      "ಕೆಲಸ": 4433,
      "ಉತ್ತಮ": 4434,
      "ுறுத்த": 4435,
      "ವಸ್ಥ": 4436,
      "ब्ध": 4437,
      "महत्वपूर्ण ": 4438,
      "मार्": 4439,
      "ಎನ್ನ": 4440,
      "न और ": 4441,
      "తిగా ": 4442,
      "पं": 4443,
      "அனுமத": 4444,
      "घटना": 4445,
      "மத்திய ": 4446,
      "உறுப்ப": 4447,
      "న్నాడు": 4448,
      " ಒಂದು ": 4449,
      " ಕಾಲ": 4450,
      " ಅಧಿಕಾರ": 4451,
      "సింగ్ ": 4452,
      "न की ": 4453,
      "పని ": 4454,
      "అరెస్ట": 4455,
      "ವಿಶ್ವ": 4456,
      "దీనిని ": 4457,
      "కారం ": 4458,
      "नरेंद्र ": 4459,
      "దర్యాప్తు ": 4460,
      "బెంగ": 4461,
      "ప్రమాద": 4462,
      "எனவே ": 4463,
      "కుంటు": 4464,
      "17": 4465,
      " ಪ್ರಕರಣ": 4466,
      " ಕೂಡ": 4467,
      "చే ": 4468,
      "ಲೈ": 4469,
      "ஜி": 4470,
      "చట్ట": 4471,
      "ಿಯಾಗಿ ": 4472,
      "लिख": 4473,
      "వర్గ": 4474,
      "ுக்கு எதிர": 4475,
      "ఆల": 4476,
      "దూ": 4477,
      "அதிகர": 4478,
      "टा ": 4479,
      "मांग": 4480,
      "ిత ": 4481,
      "విధ ": 4482,
      "గత ": 4483,
      "लब्ध": 4484,
      "ுக்கள": 4485,
      "500 ": 4486,
      "ಿರಿ": 4487,
      "వివిధ ": 4488,
      "ೆಗಳ": 4489,
      "जल्": 4490,
      "ராக ": 4491,
      "ங்கள் க": 4492,
      "కథ": 4493,
      "ನ್ಸ್": 4494,
      "అనే ": 4495,
      "त हो ": 4496,
      "శాఖ ": 4497,
      "ತಿಳಿಸಿದ್ದಾರೆ": 4498,
      "हालांकि": 4499,
      "एच": 4500,
      "ింగ్": 4501,
      "అనేది ": 4502,
      "విచార": 4503,
      "ர்ச்ச": 4504,
      "करोड़ ": 4505,
      "ுதல": 4506,
      "కేంద్ర ": 4507,
      "पूर्व ": 4508,
      "మాట్లాడ": 4509,
      "उपलब्ध": 4510,
      "ಿದ್ದೇವೆ": 4511,
      "ಇದ್ದ": 4512,
      "వ్యవస్థ": 4513,
      "ுகளில் ": 4514,
      " ಬಾ": 4515,
      " ನಲ್ಲಿ ": 4516,
      "ஷ் ": 4517,
      "మార్గ": 4518,
      "குற்றம் சாட்ட": 4519,
      "ाने ": 4520,
      "డిని ": 4521,
      "் மீது ": 4522,
      "ಅಥವಾ": 4523,
      "ರೂ ": 4524,
      "మృ": 4525,
      "திற": 4526,
      "தாக்க": 4527,
      "महिला": 4528,
      "चिक": 4529,
      "ಚೆ": 4530,
      "गं": 4531,
      "ಹೆಚ್ಚು ": 4532,
      "ಭಿವೃದ್ಧ": 4533,
      "नई ": 4534,
      "హై": 4535,
      "ರಾಮ": 4536,
      "ಟೀ": 4537,
      "ಟೆ": 4538,
      "வேற": 4539,
      "भाजपा": 4540,
      "यर": 4541,
      "ேக": 4542,
      "पानी ": 4543,
      " ಬ್ಯಾ": 4544,
      "स्था": 4545,
      "पढ़": 4546,
      "ी के ": 4547,
      "ிற்ச": 4548,
      "प्रदान": 4549,
      "తిరిగ": 4550,
      "र है": 4551,
      "ప్రయోజ": 4552,
      "వాటి": 4553,
      "ಎಲ್ಲಾ": 4554,
      "ೇರಿದ": 4555,
      "प्रतिश": 4556,
      "సందర్భ": 4557,
      "मदद": 4558,
      " ने ": 4559,
      "ಎರಡು ": 4560,
      "संग": 4561,
      "கள": 4562,
      "ுப் ப": 4563,
      "विष": 4564,
      "సాధార": 4565,
      "ந்து கொண்டனர்": 4566,
      "ொற": 4567,
      "ಜಯ": 4568,
      "मृ": 4569,
      "ियों के ": 4570,
      "సమాధ": 4571,
      "ఆలో": 4572,
      "मुख्य ": 4573,
      "ందా": 4574,
      " ನಂತರ": 4575,
      "எள": 4576,
      "भे": 4577,
      "இள": 4578,
      "ఐ ": 4579,
      "छो": 4580,
      "ಿಣ": 4581,
      "ார்ட": 4582,
      "ాల్సిన అవసరం ": 4583,
      "ಒಬ್ಬ": 4584,
      " ತಂಡ": 4585,
      "சரிய": 4586,
      "ఇద": 4587,
      "माध्य": 4588,
      "భాష": 4589,
      "பெரிய ": 4590,
      "ఇండి": 4591,
      "व्यक्ति": 4592,
      "ಸರ್": 4593,
      "ிக் க": 4594,
      "మంది": 4595,
      "పార్టీ ": 4596,
      "ೆಯು ": 4597,
      "శీ": 4598,
      "என்பதை ": 4599,
      "రికీ ": 4600,
      "गर": 4601,
      " सभी ": 4602,
      "కుమార్": 4603,
      "इस संबंध में ": 4604,
      "ంగా ఉండ": 4605,
      "म्मे": 4606,
      "गल": 4607,
      "भ ": 4608,
      "పరు": 4609,
      "ల్ప": 4610,
      "ಮಂತ್ರಿ ": 4611,
      "ಚುನಾವಣ": 4612,
      "್ಯೂ": 4613,
      "కమి": 4614,
      "் மூலம் ": 4615,
      " ರಾಜ": 4616,
      "सान": 4617,
      "ನಡೆದ": 4618,
      "ట్టు": 4619,
      " இட": 4620,
      "ఆ తర్వాత ": 4621,
      "ಪ್ರಕರಣ ದಾಖ": 4622,
      "लाग": 4623,
      "ರ್ಧ": 4624,
      "சதவீ": 4625,
      "ಕು ": 4626,
      " ಶಾ": 4627,
      "संबंध": 4628,
      " सरकार ": 4629,
      "ಳಿತ": 4630,
      "ವರಿಗೆ ": 4631,
      "सी भी ": 4632,
      "ಲಭ್ಯ": 4633,
      "ಣಾಮ": 4634,
      "ದಸ್ಯ": 4635,
      "ುತ್ತದೆ ": 4636,
      "सद": 4637,
      "் போ": 4638,
      " ಅಧ್ಯಕ್ಷ": 4639,
      "सरकार": 4640,
      "तिक ": 4641,
      "వత్": 4642,
      "14 ": 4643,
      "மடைந்த": 4644,
      "विक": 4645,
      "ఈ విషయంలో ": 4646,
      "ನಿಜ": 4647,
      " ಎಂಬ": 4648,
      "ां": 4649,
      "டைய": 4650,
      "ఆర్థిక ": 4651,
      "ప్ప ": 4652,
      "స్త్ర": 4653,
      "िति ": 4654,
      "नहीं किया ": 4655,
      "சால": 4656,
      "ஒரு க": 4657,
      "ించండి": 4658,
      "సంఘట": 4659,
      "दुन": 4660,
      "हूँ": 4661,
      "ఎక్కువ ": 4662,
      " ಅನು": 4663,
      "ಿಸ್ತಾನ": 4664,
      "16 ": 4665,
      "విని": 4666,
      " ಮೊದಲ": 4667,
      "ஏற்க": 4668,
      "भा ": 4669,
      "न्याया": 4670,
      "ಇಬ್ಬ": 4671,
      "ಳೆ ": 4672,
      "विभि": 4673,
      "ಸ್ವಾ": 4674,
      "இருக்கும்": 4675,
      "भगवान": 4676,
      "ொள": 4677,
      "தான": 4678,
      "సౌ": 4679,
      "ರ ": 4680,
      "సమయంలో ": 4681,
      "இது தொடர்பாக ": 4682,
      " करने का ": 4683,
      "सकते हैं": 4684,
      "ೋಧ": 4685,
      "భి": 4686,
      "ಿಕಿತ್": 4687,
      "ா மற்றும் ": 4688,
      " ಜೊ": 4689,
      "గణ": 4690,
      "ంజ": 4691,
      "కళ": 4692,
      "த்தின் ம": 4693,
      "विशेष ": 4694,
      "துண": 4695,
      "ಭೇ": 4696,
      "चुनाव ": 4697,
      "ದ್ರ": 4698,
      "அங்க": 4699,
      "తయ": 4700,
      "చికి": 4701,
      "ಇತರ": 4702,
      " ರೂ": 4703,
      "घटना ": 4704,
      "తరువాత ": 4705,
      "చికిత్స": 4706,
      "ேற்ற": 4707,
      "కన్న": 4708,
      "யெகோவ": 4709,
      "ப்படும்": 4710,
      "நடக்க": 4711,
      "मंदि": 4712,
      "పోలీస్ స్టేష": 4713,
      "உறுப்பின": 4714,
      "ಅವನ": 4715,
      "ಮೂಲ": 4716,
      "बात ": 4717,
      "ைகளில் ": 4718,
      "ನಾಟಕ": 4719,
      "स्ता": 4720,
      "ಮಿ ": 4721,
      "गया ": 4722,
      "இறுத": 4723,
      "दुर्": 4724,
      "నిలి": 4725,
      " பிர": 4726,
      "விரைவ": 4727,
      "டியாக ": 4728,
      "व्या": 4729,
      " करेंगे": 4730,
      "आ ": 4731,
      " ವೈ": 4732,
      "తిరిగి ": 4733,
      "పం": 4734,
      "సారి ": 4735,
      "मर": 4736,
      "टी ": 4737,
      "ಆತ": 4738,
      "क में ": 4739,
      "గ్రహ": 4740,
      "కారణంగా ": 4741,
      "నింది": 4742,
      "तरह से ": 4743,
      "ర్మ": 4744,
      "मुद्": 4745,
      "ப்ட": 4746,
      "न्न ": 4747,
      "यी": 4748,
      "ल का ": 4749,
      "हुआ है": 4750,
      "நிறுத்த": 4751,
      "வென்ற": 4752,
      "ವಾಹನ": 4753,
      "ಕ್ತಿಯ": 4754,
      "சங்க": 4755,
      " ಅನ್ನು ": 4756,
      "நக": 4757,
      "ற்றுக்க": 4758,
      "न का ": 4759,
      "ೃತ್ತ": 4760,
      "ுகின்றனர்": 4761,
      "ವಿ ": 4762,
      "ಕಾಲ": 4763,
      "ஏன் ": 4764,
      "ై ": 4765,
      "సంవత్": 4766,
      "సంవత్సర": 4767,
      "चल ": 4768,
      "குறிப்ப": 4769,
      "విజయం ": 4770,
      "కలిసి ": 4771,
      "அப்பட": 4772,
      "ने से ": 4773,
      "ಂಡ್": 4774,
      "స్ట్ ": 4775,
      "हित ": 4776,
      "ಕೆಲವು ": 4777,
      " ರೀತಿಯ": 4778,
      "ाई ": 4779,
      "पूछ": 4780,
      "ಲ್ಪಟ್ಟ": 4781,
      "ಅವನು ": 4782,
      "அமெர": 4783,
      "ர்நாட": 4784,
      "த்தைப் ப": 4785,
      "బల": 4786,
      " முடியும்": 4787,
      "ించాడు": 4788,
      "உடன": 4789,
      "ರಾಷ್ಟ್ರೀಯ": 4790,
      "గే ": 4791,
      "వాన్ని ": 4792,
      "ಹಿತಿ ": 4793,
      "కుమార్ ": 4794,
      "நன்ற": 4795,
      "रही ": 4796,
      "ीम": 4797,
      "पुरस्": 4798,
      "अभ": 4799,
      "ியின் ": 4800,
      "ைத் தொட": 4801,
      "நோக்க": 4802,
      " ಪ್ರಶ್": 4803,
      "బాధ": 4804,
      " कोई": 4805,
      "ாவல் நிலைய": 4806,
      "ೀನಾ": 4807,
      "ప్రభుత్వ ": 4808,
      "உண்மைய": 4809,
      "फे": 4810,
      "ಬ್ರ": 4811,
      "ింపు ": 4812,
      "కర్ణా": 4813,
      "కర్ణాట": 4814,
      "ವೂ": 4815,
      "குடும்ப": 4816,
      "భారత్ ": 4817,
      "हे": 4818,
      "ించిన": 4819,
      "ड्": 4820,
      "ಪಡೆಯ": 4821,
      "दौरान ": 4822,
      "ಯ್ಯ": 4823,
      "அமைப்ப": 4824,
      "சிறந்த ": 4825,
      "தேர்த": 4826,
      "भाष": 4827,
      "ರೋಧ": 4828,
      "పాత్ర": 4829,
      "தொடங்க": 4830,
      "இங்கே ": 4831,
      "ం మరియు ": 4832,
      "पाल": 4833,
      "s ": 4834,
      "பிரதமர் ": 4835,
      " ಬಿಜೆಪ": 4836,
      "क है": 4837,
      "குழந்தைகள": 4838,
      "परीक्ष": 4839,
      "तरी": 4840,
      "ನ್ಯಾಯಾ": 4841,
      "కుడు ": 4842,
      "दि ": 4843,
      "जन ": 4844,
      "ంగా ఉంది": 4845,
      "लय ": 4846,
      "కం": 4847,
      "துக்க": 4848,
      "बल्": 4849,
      "आस": 4850,
      "घाय": 4851,
      "ಪರ": 4852,
      "ದ್ದರಿಂದ": 4853,
      "ಒಪ್ಪ": 4854,
      "என்று கூறினார்": 4855,
      "ಗ್ಗ": 4856,
      " स्टेश": 4857,
      "ಪ್ರೀ": 4858,
      "స్ట్ర": 4859,
      "घो": 4860,
      "ಭಟ": 4861,
      "_ ": 4862,
      "भग ": 4863,
      "लगभग ": 4864,
      "ಳಿಯ": 4865,
      "ौन ": 4866,
      "दृ": 4867,
      "ఏర్పాటు ": 4868,
      " ದೇಶ": 4869,
      "ன்கள": 4870,
      "ತ್ಯಾ": 4871,
      "టా ": 4872,
      "ವರ್ಷ": 4873,
      "प्राप्त": 4874,
      "मेरिक": 4875,
      "அடுத்த": 4876,
      "దవ": 4877,
      "बहुत": 4878,
      "अमेरिक": 4879,
      "సిని": 4880,
      "ப் பிர": 4881,
      "மிக": 4882,
      "కష్ట": 4883,
      "र और ": 4884,
      "பை": 4885,
      "ఆన": 4886,
      "నై": 4887,
      "ನಮಗೆ ": 4888,
      "जवाब ": 4889,
      "1,": 4890,
      "ுத் தெ": 4891,
      "மாட்ட": 4892,
      "ನೇಕ": 4893,
      "శక్": 4894,
      " ನಡೆ": 4895,
      "పాఠశ": 4896,
      " ಚಿತ್ರ": 4897,
      " ಸರ": 4898,
      "கர்த்த": 4899,
      "महा": 4900,
      "ರೂಪ": 4901,
      "்வு ": 4902,
      "பிள": 4903,
      "ಡೀ": 4904,
      "इस पर ": 4905,
      "பாகிஸ்த": 4906,
      "ಮಿಕ": 4907,
      "சிவ": 4908,
      "ತನಿಖ": 4909,
      "డిగ": 4910,
      "அல": 4911,
      "ಹೇಳಿದ್ದಾರೆ": 4912,
      "జీవిత": 4913,
      "దేవుని ": 4914,
      "ர் த": 4915,
      "ஷ்ட": 4916,
      "టా": 4917,
      "పథ": 4918,
      "రాహ": 4919,
      "ವಿದ್ಯಾರ್ಥ": 4920,
      " ಗಾಂಧ": 4921,
      "தெரிய": 4922,
      "ఆలోచ": 4923,
      "பாஜகவ": 4924,
      "గురు ": 4925,
      "எதிர்க": 4926,
      "यीशु": 4927,
      "ేదు": 4928,
      "ೆಲ್ಲ": 4929,
      "ತಪ್ಪ": 4930,
      "ಿದ್ದಾರೆ ": 4931,
      "చేయడం ": 4932,
      "ன ": 4933,
      "ல்த": 4934,
      "ವ್ಯಾ": 4935,
      " வேண்டிய ": 4936,
      "వైద్య": 4937,
      "விசாரணை ": 4938,
      "టం ": 4939,
      "ುತ್ತಿರುವ": 4940,
      "ఉంటాయి": 4941,
      "డూ ": 4942,
      " ಧ": 4943,
      "ஆம் ": 4944,
      "ಗಾಯ": 4945,
      "ಸಿ ": 4946,
      "నిరస": 4947,
      "ರಾಹು": 4948,
      "ிகளுக்கு ": 4949,
      "ெட் ": 4950,
      " ಹೆಚ್ಚು ": 4951,
      "రీ ": 4952,
      "ಚಿತ": 4953,
      "కేస": 4954,
      "ಫಲ": 4955,
      "అరెస్టు ": 4956,
      "ித்த ": 4957,
      "ते हुए": 4958,
      "विश्व": 4959,
      "ತ್ಪಾದ": 4960,
      "தார": 4961,
      "లేదని ": 4962,
      "ಶಾಲ": 4963,
      "செல்ல": 4964,
      "లాంటి ": 4965,
      "ष्ट ": 4966,
      "ष्ठ ": 4967,
      "ठी": 4968,
      "வார": 4969,
      "राहु": 4970,
      "இயேச": 4971,
      "त की ": 4972,
      "వర్ష": 4973,
      "முக்கிய": 4974,
      "ాలు ఉన్నాయి": 4975,
      "ராகு": 4976,
      "டக": 4977,
      "शिकाय": 4978,
      "అర్థ": 4979,
      "ప్పటికే ": 4980,
      "ப்படும் ": 4981,
      "ने वाल": 4982,
      "ब्र": 4983,
      "அடிப்பட": 4984,
      "ल और ": 4985,
      "என்ற ": 4986,
      "జరిగిన ": 4987,
      "பத்த": 4988,
      " सब": 4989,
      "अर्": 4990,
      "े और ": 4991,
      "ೇಳೆ ": 4992,
      "लाख ": 4993,
      "ிடம": 4994,
      "తున్న ": 4995,
      "200": 4996,
      "ಮೂ": 4997,
      "ப்பட வேண்டும்": 4998,
      "ఇన్": 4999,
      "कुछ ": 5000,
      "சம": 5001,
      "తా ": 5002,
      "ுக்காக ": 5003,
      " ವಿದ": 5004,
      "राष्ट्र": 5005,
      "ವೂ ": 5006,
      "ಸುವ": 5007,
      "ताओं ": 5008,
      "गिरफ्तार": 5009,
      " करें ": 5010,
      "நான்க": 5011,
      "ಒಳ": 5012,
      "ஆதர": 5013,
      "ட்டு": 5014,
      " ಸೆ": 5015,
      "போது ": 5016,
      "ಅವರನ್ನು ": 5017,
      "ಬಹಳ": 5018,
      "ಕಿಸ್ತಾನ": 5019,
      "ಕ್ತಿ ": 5020,
      "मोदी": 5021,
      "వెంటనే ": 5022,
      "பேர": 5023,
      "யார் ": 5024,
      " ಎಂದ": 5025,
      "తను ": 5026,
      "ने में ": 5027,
      "ಿರುತ್ತದೆ": 5028,
      "இந்த சம்பவ": 5029,
      "गंभी": 5030,
      " कर रहे हैं": 5031,
      "శాంత": 5032,
      " ಸಂಸ್ಥ": 5033,
      "ఆఫ్ ": 5034,
      "ஸ்ரீ": 5035,
      "க்கும் ": 5036,
      "ವಿಧಾನ": 5037,
      "ాలి ": 5038,
      "ಯಾಣ": 5039,
      "आगे ": 5040,
      "ರಿಸ್": 5041,
      "ಮಗ": 5042,
      "గే": 5043,
      "निर्देश": 5044,
      "श्व": 5045,
      "पहली ": 5046,
      "पोर्": 5047,
      "ఫ్": 5048,
      "బయ": 5049,
      "స్థల": 5050,
      "பல ": 5051,
      "ராட்ட": 5052,
      "पक्ष": 5053,
      "దయ": 5054,
      "త్తి": 5055,
      "அவர்களுக்கு ": 5056,
      " ಸೇ": 5057,
      "ித் ": 5058,
      "ಮೋ": 5059,
      "నించ": 5060,
      "தண்ணீ": 5061,
      " कैसे ": 5062,
      "18 ": 5063,
      "ல்க": 5064,
      "ప్ల": 5065,
      "ா க": 5066,
      " ರಾಜ್ಯ": 5067,
      "ాల్ ": 5068,
      "ಡಿದ": 5069,
      "மாவட்ட": 5070,
      "ना क": 5071,
      " कै": 5072,
      "ೆಯಿಂದ": 5073,
      "ఫిర్యా": 5074,
      "జార": 5075,
      "ುತ್ತಿಲ್ಲ": 5076,
      "म के ": 5077,
      "ாலும் ": 5078,
      "அவள": 5079,
      "सल": 5080,
      "முடிவ": 5081,
      "ತಂಡ": 5082,
      "ಲುವ": 5083,
      " ನೋ": 5084,
      "निश्च": 5085,
      "ಬೇಕೆ": 5086,
      "दिया गया है": 5087,
      "எஸ": 5088,
      "ందో": 5089,
      "सूच": 5090,
      "ದ ಕ": 5091,
      "செய்கிற": 5092,
      "పేర్కొ": 5093,
      "ೆಗ": 5094,
      "చెల్ల": 5095,
      "ವರೆಗೆ ": 5096,
      "ಅವು": 5097,
      "िके": 5098,
      "చుకు": 5099,
      "ಾರಾ": 5100,
      "विद": 5101,
      "17 ": 5102,
      "దొ": 5103,
      "ಇದೇ": 5104,
      "हिंद": 5105,
      "ಮಾಡುವ": 5106,
      "अपना ": 5107,
      "வைக்க": 5108,
      "அனைவர": 5109,
      "అభివృద్ధి ": 5110,
      "........": 5111,
      "అవకాశం ": 5112,
      "ಂಟ್": 5113,
      "வ்வள": 5114,
      "ஏன": 5115,
      "టానికి ": 5116,
      "ులలో ": 5117,
      "ಷ್ಟೇ": 5118,
      "నిర్మ": 5119,
      "யூ": 5120,
      "ఆట": 5121,
      "ಾಗಿ": 5122,
      "ఇద్దరు ": 5123,
      "మాకు ": 5124,
      "एं": 5125,
      "அமைச்சர் ": 5126,
      "జై": 5127,
      "ப்பிட": 5128,
      "ప్రభుత్వ": 5129,
      "நிர்வ": 5130,
      "प्त ": 5131,
      "ಮತ": 5132,
      "సింది": 5133,
      "25": 5134,
      "धी": 5135,
      "प्रभा": 5136,
      " வேண்டும் ": 5137,
      "पुलिस स्टेश": 5138,
      "சிகிச்ச": 5139,
      "್ರೇ": 5140,
      "భారీ ": 5141,
      "ಇನ್ನು ": 5142,
      "ನೂ": 5143,
      "ಶು": 5144,
      "స్తోంది": 5145,
      "దీ ": 5146,
      "अच्छा ": 5147,
      "मित ": 5148,
      "इस प्र": 5149,
      "డే ": 5150,
      "్యాన్ని ": 5151,
      "ரே ": 5152,
      "ಪಾಲ": 5153,
      "नाम ": 5154,
      "ನಿನ್ನ": 5155,
      "సాం": 5156,
      "డె": 5157,
      "शुरू ": 5158,
      "ానికి": 5159,
      "ಆರಂಭ": 5160,
      "बीच": 5161,
      "టర్ ": 5162,
      "மொ": 5163,
      "லைக்க": 5164,
      "ಅತ್ಯ": 5165,
      "ರಾಹುಲ್": 5166,
      "ையில்": 5167,
      "குதிய": 5168,
      "सिद्ध": 5169,
      "पहुंच": 5170,
      "ாண்ட": 5171,
      "2.": 5172,
      "ாம் ": 5173,
      "పౌ": 5174,
      "భద్ర": 5175,
      "ಿರುವುದ": 5176,
      "ಸಹಾಯ": 5177,
      "70 ": 5178,
      "கூட": 5179,
      "ளிக்க": 5180,
      "पृ": 5181,
      "ంద ": 5182,
      "ಮಹಿ": 5183,
      "ನಗರ": 5184,
      "అక్కడ ": 5185,
      "ಾದ ": 5186,
      "இன": 5187,
      "वाल ": 5188,
      "చర్యలు తీసు": 5189,
      "शा ": 5190,
      "ிறிஸ்த": 5191,
      "ಆದ್ದರಿಂದ": 5192,
      "வர்களுக்கு ": 5193,
      "ದಾಖಲ": 5194,
      "सर्": 5195,
      "ிலான ": 5196,
      "నిర్ణయ": 5197,
      "ಕಿ ": 5198,
      "ಜೊ": 5199,
      " के साथ": 5200,
      "अच्छी ": 5201,
      "ீட்ட": 5202,
      "உங்களுக்கு ": 5203,
      " ಇಂಡ": 5204,
      "విధంగా ": 5205,
      "అని": 5206,
      "परिवार": 5207,
      "பெங்கள": 5208,
      "వర్ ": 5209,
      "வ்வா": 5210,
      "ने के लिए": 5211,
      "ಿರಿಯ": 5212,
      " के बाद ": 5213,
      "తూ": 5214,
      "ாட்டு ": 5215,
      "60 ": 5216,
      "ద ": 5217,
      "ತೀ": 5218,
      "జిల్లా ": 5219,
      "लक्ष": 5220,
      "చి ": 5221,
      "దృష్ట": 5222,
      "ದಾರ": 5223,
      "वान ": 5224,
      "ಕೂ": 5225,
      "राज्य ": 5226,
      "ಬ್ಯಾ": 5227,
      "ಾಗಲೇ": 5228,
      "மட்டுமே ": 5229,
      "್ಯು": 5230,
      "ఆధార": 5231,
      "ಯೇ": 5232,
      "డం": 5233,
      "சேர": 5234,
      "ాం": 5235,
      "ானது": 5236,
      "కేవల": 5237,
      "టే": 5238,
      "ಭ್ಯರ್ಥ": 5239,
      "இதை ": 5240,
      "ಮಾರು ": 5241,
      "సమాచారం ": 5242,
      "ವನು ": 5243,
      "भूमिक": 5244,
      "ती हैं": 5245,
      "अभिने": 5246,
      "சிக்க": 5247,
      "ಥಿತ": 5248,
      "ಹೊರ": 5249,
      "రాయ": 5250,
      "వగా ": 5251,
      "రహ": 5252,
      "ರಿದ": 5253,
      "ಕ್ರಿಯ": 5254,
      "ொல்ல": 5255,
      "డంలో ": 5256,
      "ಿಯೂ": 5257,
      "हुई": 5258,
      "घोष": 5259,
      " ಎರಡ": 5260,
      "ಯೋಜನ": 5261,
      "ல ": 5262,
      "కేవలం ": 5263,
      "रक्षा ": 5264,
      "லமை": 5265,
      "చేస్తుంది": 5266,
      "எச": 5267,
      "அவை ": 5268,
      "పోయింది": 5269,
      "ಘಟನೆ ": 5270,
      "ఎవరూ ": 5271,
      " ವಿಚಾರ": 5272,
      "संख": 5273,
      "மேம்ப": 5274,
      "రాహుల్ ": 5275,
      "தற்ப": 5276,
      "ு கொண்ட": 5277,
      "था ": 5278,
      "நேரத்தில் ": 5279,
      "13 ": 5280,
      "சரி": 5281,
      "लोगों की ": 5282,
      "ಸ್ತ್ರ": 5283,
      "ஏற்கன": 5284,
      "బ్ ": 5285,
      "ಬಿಡುಗ": 5286,
      "శ్రీ": 5287,
      "ी की ": 5288,
      "అర్": 5289,
      "ತ್ತರ": 5290,
      "ஒரு ப": 5291,
      "టులో ": 5292,
      "ನೀ": 5293,
      "सार": 5294,
      "స్తున్న ": 5295,
      "जानकारी ": 5296,
      "எதிர்ப": 5297,
      "ఉత్ప": 5298,
      "తున్నారు": 5299,
      " सिं": 5300,
      "చికిత్స ": 5301,
      "ுத் தெரிய": 5302,
      "ರಿಸ್ಥಿತ": 5303,
      "श्री": 5304,
      "ಪ್ರಾ": 5305,
      "ధి ": 5306,
      "इला": 5307,
      "నాలు ": 5308,
      " ಅಲ್ಲ": 5309,
      "पी ": 5310,
      "ಿತಾ": 5311,
      "ప్పటి ": 5312,
      "ఇప్పుడు ": 5313,
      "గ్రామ": 5314,
      " ಬಂದ": 5315,
      " समय ": 5316,
      "ென": 5317,
      "క్త": 5318,
      "ಅದಕ್ಕೆ ": 5319,
      "प्रमुख ": 5320,
      "ಹೆಚ್ಚಿನ": 5321,
      "ఆనంద": 5322,
      "వివాహ": 5323,
      "ట్టి": 5324,
      "காரண": 5325,
      "फल ": 5326,
      "கம் ": 5327,
      "అలా ": 5328,
      "ంతా ": 5329,
      "ನ್ಯಾಯ": 5330,
      "పెరుగు": 5331,
      "इसके लिए ": 5332,
      "గుర్త": 5333,
      "ದೀ": 5334,
      "ప్రయా": 5335,
      "भव ": 5336,
      "ினர": 5337,
      "उसने ": 5338,
      "हिस्": 5339,
      "ಹಾಸ": 5340,
      "అమె": 5341,
      "ఎందు": 5342,
      "ప్రీ": 5343,
      "स्वास्थ": 5344,
      " ಕೋ": 5345,
      "ದೊಡ್ಡ": 5346,
      "पति ": 5347,
      "என்றும் ": 5348,
      "வெற்ற": 5349,
      "21 ": 5350,
      "எஃப": 5351,
      "ೆಗಳು ": 5352,
      "துவ": 5353,
      "परमे": 5354,
      "ಮಾತನಾಡ": 5355,
      "हार": 5356,
      "ದೆಹಲ": 5357,
      "निर्ण": 5358,
      " ದೇ": 5359,
      "డబ్బ": 5360,
      "నివే": 5361,
      "வெளியிட": 5362,
      " ಮೆ": 5363,
      "ಂಬಲ": 5364,
      "ச்சர": 5365,
      "ರಕ್ಷ": 5366,
      "இதில் ": 5367,
      "ಿಕೆಟ್": 5368,
      "கன": 5369,
      "ோத": 5370,
      "ఫై": 5371,
      "వచ్చింది": 5372,
      "நடவடிக்கை எ": 5373,
      "நிலை ": 5374,
      "జీవ": 5375,
      "மகிழ்ச்சிய": 5376,
      "ప్పుడు": 5377,
      " के प्र": 5378,
      "ின்றன": 5379,
      "ರ್ಯ": 5380,
      "ప్రపంచ ": 5381,
      "வழக்கு பதிவு செய்யப்பட்ட": 5382,
      " ಮಾರ": 5383,
      "ಗೊತ್ತ": 5384,
      "డిమా": 5385,
      "दिए ": 5386,
      "த் தலை": 5387,
      "ஏற்பட்ட": 5388,
      "మద్ద": 5389,
      "దైంది": 5390,
      "ದ ಪ": 5391,
      "आत": 5392,
      "తక్కు": 5393,
      "ார்கள் ": 5394,
      "மனித": 5395,
      "भारत में ": 5396,
      "గాంధీ ": 5397,
      "సేవ": 5398,
      "అదే ": 5399,
      "ಾನೂ": 5400,
      "ய்": 5401,
      "बड़ी ": 5402,
      "கண": 5403,
      "అంశ": 5404,
      "ப்பட்டன": 5405,
      "సంఖ్య": 5406,
      "யில் ": 5407,
      "చై": 5408,
      "हुआ ": 5409,
      "ப்பட்டுள்ளன": 5410,
      "ுள்ள ": 5411,
      "जय": 5412,
      " ಹೊರ": 5413,
      "అడిగ": 5414,
      "म्म": 5415,
      "अवस": 5416,
      "పి ": 5417,
      "ೇರಿದಂತೆ ": 5418,
      "ेवल ": 5419,
      "ದಲು ": 5420,
      "అయిన": 5421,
      "पस": 5422,
      "ಬೆಂಗಳ": 5423,
      "प्रिय": 5424,
      "ிண": 5425,
      "ಾತ": 5426,
      "नहीं हैं": 5427,
      "ிந்த": 5428,
      "அறிமுக": 5429,
      "இல்லை ": 5430,
      "ேன் ": 5431,
      "ಪುರ": 5432,
      "కల్ప": 5433,
      "छोट": 5434,
      "ொள்வ": 5435,
      "ं और ": 5436,
      "जाने ": 5437,
      "ानू": 5438,
      "ವರು": 5439,
      "परेश": 5440,
      "अस्पताल में ": 5441,
      "மாகும்": 5442,
      "ைந்த": 5443,
      "ಲಾಗುತ್ತದೆ": 5444,
      "ಾರಂಭ": 5445,
      "கோதர": 5446,
      "ಎದು": 5447,
      "క్షి": 5448,
      "पाद": 5449,
      "शास": 5450,
      "तुर": 5451,
      "சோதன": 5452,
      "யண": 5453,
      "పండ": 5454,
      " வேண்டாம்": 5455,
      "ியா ": 5456,
      "డికి ": 5457,
      "అల": 5458,
      "ఆహార": 5459,
      "ಗಮನ": 5460,
      "ಾಲಿ": 5461,
      "விலை ": 5462,
      "ிறகு ": 5463,
      "ियों ": 5464,
      "పరిష్": 5465,
      "ಪಡೆ": 5466,
      "లతో ": 5467,
      "இருக்கிற": 5468,
      "और": 5469,
      "न से ": 5470,
      "రా ": 5471,
      "ியர்கள": 5472,
      "క్టర్ ": 5473,
      "लैंड": 5474,
      "ఫె": 5475,
      " ಅಥವಾ": 5476,
      "नार": 5477,
      "न को ": 5478,
      "ికె": 5479,
      "ப் ": 5480,
      "ೂಂದ": 5481,
      "ுட்ப": 5482,
      "நிலை": 5483,
      "ा कोई ": 5484,
      "ೊಡ": 5485,
      "್ಟ್": 5486,
      "ता है कि ": 5487,
      "जीवन ": 5488,
      "बह": 5489,
      "ఉద్య": 5490,
      "ೇಜ": 5491,
      "முட": 5492,
      " ಮನ": 5493,
      "ಮೊದಲ": 5494,
      "ஆனால்": 5495,
      "अलग ": 5496,
      "ಸ್ಪತ್ರೆಗೆ ": 5497,
      "ண்ப": 5498,
      "మూడు ": 5499,
      " ಪ್ರತಿ": 5500,
      " ವರ್": 5501,
      "श्वर": 5502,
      "ंग्रेस": 5503,
      "డ్ర": 5504,
      "ಕಷ್ಟು ": 5505,
      "மல": 5506,
      "ಬೇಕಾ": 5507,
      "తమైన ": 5508,
      "చెబు": 5509,
      "ேற": 5510,
      "जा रहा है": 5511,
      "வைய": 5512,
      "वाले ": 5513,
      "పెంచ": 5514,
      "స్పష్ట": 5515,
      "ఎంత ": 5516,
      "भारतीय": 5517,
      "చ్ ": 5518,
      "विधाय": 5519,
      "ಲಿನ": 5520,
      "ం యొక్క ": 5521,
      "మరో ": 5522,
      "ட்ர": 5523,
      "ಯೆಹೋವನ": 5524,
      "माध्यम से ": 5525,
      "ஐ ": 5526,
      "एफ": 5527,
      "రావ": 5528,
      "च्च ": 5529,
      "నమ్మ": 5530,
      "ೊಲೀಸ್ ": 5531,
      "ಲಾಖ": 5532,
      "ता क": 5533,
      "ாதுகா": 5534,
      "ನ ": 5535,
      "வர் க": 5536,
      "లక్షణ": 5537,
      "அதிக ": 5538,
      "సులభ": 5539,
      "वाद ": 5540,
      "ಲ್ಲೇ": 5541,
      "ருவ": 5542,
      "ल हो ": 5543,
      " ಹೊಂದ": 5544,
      "ందోళ": 5545,
      "ುತ್ತಾ": 5546,
      "బడి ": 5547,
      "கார": 5548,
      "जीत ": 5549,
      "ಜನರು ": 5550,
      "மழ": 5551,
      "బహు": 5552,
      "అత్యంత ": 5553,
      " क्र": 5554,
      "త్వర": 5555,
      "बारि": 5556,
      "रहे": 5557,
      "மேலும்": 5558,
      "ಲಭ": 5559,
      "ವಿಚಾರ": 5560,
      "என்றார்": 5561,
      "அதன் ": 5562,
      "कांग्रेस ": 5563,
      "शब्": 5564,
      "”\r\n": 5565,
      "என்றால் ": 5566,
      " ಪಾತ್ರ": 5567,
      "నాలు": 5568,
      "होना चाहिए": 5569,
      "చేయాలి": 5570,
      "ದ್ದು ": 5571,
      "వ్యాప్": 5572,
      "ఎల్": 5573,
      "ஆகும்": 5574,
      "సమాధానం ": 5575,
      "शै": 5576,
      "ామని ": 5577,
      "ప్రధాని నరేంద్ర ": 5578,
      " ಅಗತ್ಯ": 5579,
      "ये ": 5580,
      "्रवाई": 5581,
      " ಚುನಾವಣ": 5582,
      "ఇప్పటికే ": 5583,
      "ించాలి": 5584,
      "மேற்க": 5585,
      "ுவதும் ": 5586,
      "एँ": 5587,
      "ಿಗಳನ್ನು ": 5588,
      "क और ": 5589,
      "ருத்துவமனையில் ": 5590,
      "उद्": 5591,
      "भारी ": 5592,
      "బెంగళూ": 5593,
      "కోట్ల ": 5594,
      " ಸಂಗ": 5595,
      "కావ": 5596,
      "வர்கள்": 5597,
      "ஆரோ": 5598,
      "దని ": 5599,
      "ಶ್ಯ": 5600,
      "ాలను": 5601,
      "ாக இருந்த": 5602,
      "प्रधानमंत्री नरेंद्र ": 5603,
      "తెలియదు": 5604,
      "हुई है": 5605,
      "ಬೇ": 5606,
      "गई थी": 5607,
      "ಕಳೆ": 5608,
      "ுமையான ": 5609,
      " ಸೂ": 5610,
      "ன்க": 5611,
      "एक स": 5612,
      "ೆ ನಡೆಸ": 5613,
      "सामने ": 5614,
      "తుల ": 5615,
      "ಬೀ": 5616,
      "ముఖ": 5617,
      "ிடமிருந்து ": 5618,
      "30": 5619,
      "जैसे ": 5620,
      "ಣೆ": 5621,
      "ೊಲೀಸ್": 5622,
      "हमारी ": 5623,
      "फिर से ": 5624,
      "கொண்ட": 5625,
      "ಗಳಿಗ": 5626,
      "प्रदेश": 5627,
      "என்பத": 5628,
      "ಗರ": 5629,
      "ಫೋ": 5630,
      "ವಾಲಯ": 5631,
      "ாடு ": 5632,
      " ಸಚಿವ": 5633,
      "வார்த்த": 5634,
      "ಗಳಿವೆ": 5635,
      "ನಿಮಗೆ ": 5636,
      "ைப்பு ": 5637,
      "ாத ": 5638,
      "ஆண": 5639,
      "ాను ": 5640,
      "ವೃತ್ತ": 5641,
      "பதில": 5642,
      "हां ": 5643,
      "సమయం ": 5644,
      "ा किया ": 5645,
      "अंतर": 5646,
      "நினைவ": 5647,
      "हत": 5648,
      "जाएगी": 5649,
      "परिणा": 5650,
      "ಅಗತ್ಯ": 5651,
      " ಅಪ": 5652,
      "చిన్న ": 5653,
      "युक्त ": 5654,
      "சுத": 5655,
      "ನಿ ": 5656,
      "த்தக": 5657,
      "ಕೊಡ": 5658,
      "ின் தலை": 5659,
      "करण": 5660,
      "ತುಂಬಾ": 5661,
      "त्र में ": 5662,
      "కూడదు": 5663,
      " करने की ": 5664,
      "వ్యక్తం ": 5665,
      "गौ": 5666,
      "दी है": 5667,
      "ாவல் நிலையத்தில் ": 5668,
      "राहुल ": 5669,
      "बच": 5670,
      "ಂತೆ": 5671,
      "மூன்று ": 5672,
      "वर्ष": 5673,
      "लोक": 5674,
      "வேலை ": 5675,
      "ाने के लिए ": 5676,
      "పాకిస్తాన్ ": 5677,
      "ಅಧಿಕಾರ": 5678,
      "అవసరం": 5679,
      "ओर ": 5680,
      "ங்கள் ப": 5681,
      "அவருக்கு ": 5682,
      "दाल": 5683,
      "ఇంద": 5684,
      "ार्थ": 5685,
      " ಪಂದ್ಯ": 5686,
      "ದಯ": 5687,
      "அதே ": 5688,
      "क्षि": 5689,
      "జన": 5690,
      "సమీ": 5691,
      "विधान": 5692,
      "రవ": 5693,
      "சுக": 5694,
      "போலீசார் ": 5695,
      "ప్రి": 5696,
      " ಪಟ್ಟ": 5697,
      "श्री ": 5698,
      "ல்ப": 5699,
      "‘ ": 5700,
      "ೇವಲ": 5701,
      "మైనది": 5702,
      "नुकस": 5703,
      "ోకి ": 5704,
      "मिला": 5705,
      " ಎಲ್ಲ": 5706,
      "ోగ": 5707,
      "ఉండే": 5708,
      "పార్టీ": 5709,
      "పోలీస్ స్టేషన్లో ": 5710,
      "ೀ": 5711,
      " ಕಾಂಗ್ರೆಸ್": 5712,
      "्योंकि ": 5713,
      "लू": 5714,
      "ಬಳಸ": 5715,
      "फी ": 5716,
      "ನನ್ನು ": 5717,
      "భారతదేశంలో ": 5718,
      "घा": 5719,
      "డిగా ": 5720,
      "நடைபெற்ற": 5721,
      "యేసు ": 5722,
      "ारण": 5723,
      "வரலா": 5724,
      " ಸಂಖ್ಯ": 5725,
      " सरकार": 5726,
      "ರುವ": 5727,
      "बाद में ": 5728,
      "ನ್ನಡ": 5729,
      "ियों ने ": 5730,
      "ஏற்பட": 5731,
      "உர": 5732,
      "உச்ச": 5733,
      "वेश": 5734,
      "విస్త": 5735,
      " ಸಾಧ್ಯ": 5736,
      "ಕ್ತಪಡ": 5737,
      "ಿಯೂ ": 5738,
      "ರುಗ": 5739,
      "ுத் த": 5740,
      "पुलिस स्टेशन में ": 5741,
      "दार": 5742,
      "ప్రద": 5743,
      "ாமல் ": 5744,
      "ென்ற": 5745,
      "ితంగా ": 5746,
      "క్రికె": 5747,
      "ಸ್ಪರ್ಧ": 5748,
      "ఉందని ": 5749,
      "शां": 5750,
      "இயக்க": 5751,
      "வெற்றி பெற்ற": 5752,
      "் கல": 5753,
      "ಕೋರ್": 5754,
      "தும": 5755,
      "ಪತ್ರ": 5756,
      "పిల్లలు ": 5757,
      "ரூபாய் ": 5758,
      "తల్లి": 5759,
      "இப்போது ": 5760,
      "ణి": 5761,
      "्या है": 5762,
      "में कोई ": 5763,
      "డే": 5764,
      "हमने ": 5765,
      "विशेष": 5766,
      "గ్రా": 5767,
      "विभिन्न ": 5768,
      "ಕಾಯ": 5769,
      " ಮಕ್ಕಳ": 5770,
      "ಸಾಮಾನ್ಯ": 5771,
      "த் தொட": 5772,
      "ಯಿತು": 5773,
      "వేగ": 5774,
      "कोई ": 5775,
      "உற்ப": 5776,
      "் மு": 5777,
      "బడిన ": 5778,
      "ग्": 5779,
      "సీ ": 5780,
      "ರೇಂದ್ರ ಮೋದಿ ": 5781,
      "ನಂಬ": 5782,
      "इसकी ": 5783,
      "ప్రత్యేక ": 5784,
      "இவை ": 5785,
      "ಗೊ": 5786,
      "ವಾರು ": 5787,
      "ಚರಣ": 5788,
      "த்தில்": 5789,
      "కోరు": 5790,
      "तिहा": 5791,
      "ಮೆರಿಕ": 5792,
      "అర్థం ": 5793,
      "ु ": 5794,
      "ಮಾಡಿದ": 5795,
      "ಸ್ಪಷ್ಟ": 5796,
      "ுரி": 5797,
      "గెలు": 5798,
      "ఇందులో ": 5799,
      "க்": 5800,
      "ించి": 5801,
      "యెహోవా": 5802,
      " ಸ್ಥಾನ": 5803,
      "ಸಾರ": 5804,
      "बाहर ": 5805,
      "पूर्व": 5806,
      "राष्ट्रीय ": 5807,
      " का क": 5808,
      "बी ": 5809,
      "ನ್ನೆ": 5810,
      "ல்வேறு ": 5811,
      "जीत": 5812,
      "पिछ": 5813,
      " ಕಾರ್ಯಕ್ರಮ": 5814,
      "ತಿಳಿಸಿದರು": 5815,
      "होंगे": 5816,
      "जारी ": 5817,
      "ాలు మరియు ": 5818,
      "नी चाहिए": 5819,
      "गठ": 5820,
      "நெ": 5821,
      "ಮೈ": 5822,
      "्यालय": 5823,
      "ோப": 5824,
      "ದುವ": 5825,
      "இதற்க": 5826,
      "தவற": 5827,
      "మిక ": 5828,
      "बेट": 5829,
      "నికి ": 5830,
      "ಿಯು ": 5831,
      "செய்து ": 5832,
      "రోజు": 5833,
      "యన్ ": 5834,
      " ಹು": 5835,
      "మార్ప": 5836,
      "తున్నాయి": 5837,
      "ಠಾಣೆಯಲ್ಲಿ ": 5838,
      "య్యారు": 5839,
      "நுட்ப": 5840,
      "ಿಕ್": 5841,
      "ಪ್ರಶ್": 5842,
      " ನಟ": 5843,
      "மதிப்ப": 5844,
      " ವಾ": 5845,
      "50": 5846,
      " ಸಿನಿಮಾ": 5847,
      "ಸೂಚ": 5848,
      "సాయ": 5849,
      "पिता ": 5850,
      "न स": 5851,
      "ಚಿಕಿತ್": 5852,
      "उदा": 5853,
      "ಿಸಬೇಕು": 5854,
      "ట్లు": 5855,
      "यदि ": 5856,
      "ண் ": 5857,
      "ఉపా": 5858,
      "செய்ய ": 5859,
      "கூட்ட": 5860,
      "வெள்ள": 5861,
      " ಸ್ಥಳ": 5862,
      "எடுக்க": 5863,
      "ಿಯಿಂದ": 5864,
      "மாநில ": 5865,
      "ாற்ற": 5866,
      "விவர": 5867,
      "ंख": 5868,
      "చేయండి": 5869,
      "उपस्थित ": 5870,
      "தேசிய ": 5871,
      " ಸಿಂಗ್": 5872,
      "కేసు నమోదు ": 5873,
      "ఫిర్యాదు ": 5874,
      " ನಿಯ": 5875,
      "| ": 5876,
      "அனுப்ப": 5877,
      "पाकिस्तान": 5878,
      "ழ்": 5879,
      "ಿಗಳಿಗೆ ": 5880,
      "వ్యక్తి": 5881,
      "चुनाव": 5882,
      "த்தின் க": 5883,
      "விவாத": 5884,
      "யாரும் ": 5885,
      "लेख": 5886,
      "அவற்ற": 5887,
      "కళా": 5888,
      "था कि ": 5889,
      "కుమారు": 5890,
      "ಶೀಲ": 5891,
      " ನಮ್ಮ": 5892,
      "ேர்ந்த ": 5893,
      " ಪ್ರಧಾನ": 5894,
      "ಚ್ಚರ": 5895,
      "మోడీ": 5896,
      "షే": 5897,
      "முக்கிய ": 5898,
      "போன்ற ": 5899,
      "ರಿದ್ದರು": 5900,
      " ಸಂಬಂಧ": 5901,
      "पीछ": 5902,
      "मीड": 5903,
      "மையில் ": 5904,
      "కేంద్ర": 5905,
      " ಕುಟುಂಬ": 5906,
      " को स": 5907,
      "ప్పుడూ ": 5908,
      "ஒரே ": 5909,
      "ఫీ": 5910,
      "ల్ని ": 5911,
      "అంతర్": 5912,
      "ಡಳಿತ": 5913,
      "ಾರ್ವ": 5914,
      "నిర్మా": 5915,
      "ఉండాలి": 5916,
      "e ": 5917,
      "ல் த": 5918,
      "भर्": 5919,
      "विश्वास ": 5920,
      "अदाल": 5921,
      "ையும்": 5922,
      "ాల్సి ": 5923,
      "ದಲ್ಲೇ": 5924,
      "టింగ్ ": 5925,
      "మిత": 5926,
      "ಟ್ಟು": 5927,
      "होते हैं": 5928,
      "ರೆದ": 5929,
      "கவன": 5930,
      "ట్లో ": 5931,
      "ஒதுக்க": 5932,
      "ಎಲ್": 5933,
      "అంగీ": 5934,
      "పోలీసు ": 5935,
      "24": 5936,
      "తండ్ర": 5937,
      "చేసే ": 5938,
      "கிராம": 5939,
      "डी ": 5940,
      "गर्": 5941,
      "पास": 5942,
      " कार्यक्र": 5943,
      "நல்ல ": 5944,
      "వ్యక్తి ": 5945,
      "ద్దు": 5946,
      "తిక ": 5947,
      "ंट": 5948,
      "ంది మరియు ": 5949,
      "ீர்கள": 5950,
      "నలో ": 5951,
      "ಅಂದ": 5952,
      "पुरस्कार ": 5953,
      "సృష్ట": 5954,
      "ைப் போல": 5955,
      "உடனடியாக ": 5956,
      "ాప": 5957,
      "ప్టె": 5958,
      "ఇం": 5959,
      " स्वा": 5960,
      "మంత్రి": 5961,
      "समर्थ": 5962,
      "இறந்த": 5963,
      "கிடைக்க": 5964,
      "అన": 5965,
      "ಆತನ": 5966,
      "ಘೋಷ": 5967,
      "್ರಿಯ": 5968,
      "ರ್ಥಿಕ": 5969,
      "సహాయం ": 5970,
      "ಕಟ": 5971,
      "చేరుకు": 5972,
      "तैया": 5973,
      "ுங்கள் ": 5974,
      "ార్ ": 5975,
      "ವಿಶೇಷ": 5976,
      "டை ": 5977,
      "ಕಾರ್": 5978,
      "ುಕೊಂಡ": 5979,
      "వీ ": 5980,
      "చాలా మంది ": 5981,
      "विचार": 5982,
      "బైబి": 5983,
      "இச": 5984,
      "ளிவ": 5985,
      "मुंब": 5986,
      "சாதன": 5987,
      "கடின": 5988,
      "ஆகியவற்ற": 5989,
      "இந்தியாவில் ": 5990,
      "లపై ": 5991,
      "ி ப": 5992,
      " ಸಾಧ": 5993,
      "ைச் சேர்ந்த ": 5994,
      "300 ": 5995,
      "द्योग": 5996,
      "ಕಡಿ": 5997,
      "ன்னட": 5998,
      "जिन्ह": 5999,
      "ఏమీ ": 6000,
      "லட்சம் ": 6001,
      "பிரதமர் நரேந்திர மோ": 6002,
      "திரும": 6003,
      "నాథ": 6004,
      " ರೈ": 6005,
      "लंब": 6006,
      "మంద": 6007,
      "ర్వ": 6008,
      "எல்ஏ": 6009,
      "नहीं था": 6010,
      "ாவல்த": 6011,
      "वीडिय": 6012,
      "यही ": 6013,
      "శారు": 6014,
      "जबू": 6015,
      "मजबू": 6016,
      "த்": 6017,
      "ద్దు ": 6018,
      "విజయం సాధ": 6019,
      "ದ ಬ": 6020,
      " ಆಯ್": 6021,
      "⁠ ": 6022,
      "ನ್ನೂ": 6023,
      "తగ": 6024,
      "సహా ": 6025,
      "ఆస": 6026,
      "పెరిగ": 6027,
      "सेव": 6028,
      "ಪರ್ಕ": 6029,
      "ಸಿದ್ಧ": 6030,
      "ுபிட": 6031,
      "పూర్తి ": 6032,
      "டாக": 6033,
      "పున": 6034,
      "लिया है": 6035,
      "ிக்கிறது": 6036,
      "త్తి ": 6037,
      "ंग्": 6038,
      "வெற": 6039,
      " ಗೆ": 6040,
      "तब ": 6041,
      "…\r\n": 6042,
      "रहा था": 6043,
      "ஆகியோர் ": 6044,
      "ಇವರ": 6045,
      "रहा ": 6046,
      "शिव": 6047,
      "க்குவர": 6048,
      "உட்ப": 6049,
      "ಸ್ವಲ್ಪ": 6050,
      "డై": 6051,
      "ಸಚಿ": 6052,
      "స్తాయి": 6053,
      "శాతం ": 6054,
      "சுமார் ": 6055,
      "हासि": 6056,
      " ಆಟ": 6057,
      "బడ్డాయి": 6058,
      " ಪೊಲೀಸರು ": 6059,
      "విశ్వ": 6060,
      "వారు": 6061,
      "स्थान": 6062,
      "ದಲ್ಲಿ": 6063,
      "லைய": 6064,
      "ಲ್ಲಿರುವ": 6065,
      "ிகள்": 6066,
      "शक्": 6067,
      "ுஃ ": 6068,
      "లేదు ": 6069,
      "அனைத்தும் ": 6070,
      "तिय": 6071,
      "எந்த": 6072,
      "పాద": 6073,
      "అంటే ఏమిటి": 6074,
      "ತೆಯನ್ನು ": 6075,
      "स्थिति ": 6076,
      "ங்கள் மற்றும் ": 6077,
      "அனுப": 6078,
      "కారణం ": 6079,
      "बंद": 6080,
      "ோவ": 6081,
      "ಡೇ": 6082,
      "ಲು ಸಾಧ್ಯ": 6083,
      "ಿದ್ದಾನೆ": 6084,
      "ితీ": 6085,
      "गत": 6086,
      "ధర": 6087,
      "ాన్": 6088,
      "ಯುವ": 6089,
      "வீடிய": 6090,
      "नहीं कर ": 6091,
      "బ్యాం": 6092,
      "वु": 6093,
      "ப்த": 6094,
      "క్య": 6095,
      "షన": 6096,
      " काम": 6097,
      "அதிகாரிகள": 6098,
      "ವಯ": 6099,
      " करने के लिए": 6100,
      "ज्ञान": 6101,
      "ನಂದ": 6102,
      "பாஜக": 6103,
      " ನಡುವೆ ": 6104,
      "ఖచ్చ": 6105,
      "ுகிறது ": 6106,
      "जिसमें ": 6107,
      "ೋಲ್": 6108,
      "ಸ್ಸ": 6109,
      "చ్చే ": 6110,
      "மேற்ப": 6111,
      "तैय": 6112,
      "ಕ್ತಿ": 6113,
      " ಮಾರ್": 6114,
      "మనకు ": 6115,
      "அறிமுகப்படுத்த": 6116,
      "वहाँ ": 6117,
      "వులు ": 6118,
      "ಪಾಕಿಸ್ತಾನ": 6119,
      "ியல் ": 6120,
      "ಮುಂಬ": 6121,
      "హింద": 6122,
      "పన": 6123,
      "ம்ம": 6124,
      "సాధ్య": 6125,
      "ింప": 6126,
      "राम": 6127,
      "लोगों के ": 6128,
      "वृद्ध": 6129,
      "प्रत्य": 6130,
      "విషయం ": 6131,
      "दाय": 6132,
      "ಬಲ್": 6133,
      "ಬೇಕು ಎಂದು ": 6134,
      "உரி": 6135,
      "ನಟ": 6136,
      "ಈ ಚಿತ್ರ": 6137,
      "ೀವ್ರ": 6138,
      "அங்கு ": 6139,
      "నొ": 6140,
      "माता": 6141,
      "निक ": 6142,
      "ನಿರ್ದೇಶ": 6143,
      "ಂದರ್ಭದಲ್ಲಿ ": 6144,
      "హత": 6145,
      "ಆಯ್": 6146,
      "चिं": 6147,
      "நி": 6148,
      "विकास ": 6149,
      "त के ": 6150,
      "दक्षि": 6151,
      "మహ": 6152,
      "ಪ್ ": 6153,
      "राव": 6154,
      "எம்எல்ஏ": 6155,
      "तुरंत ": 6156,
      "ைப் பயன்படுத்த": 6157,
      "जिला ": 6158,
      "उच्च ": 6159,
      "మైంది": 6160,
      "దీని గురించి ": 6161,
      "ుల్లో ": 6162,
      "ண்டுபிட": 6163,
      "हाय": 6164,
      "ता था": 6165,
      "बढ़ ": 6166,
      "காங்கிரஸ் ": 6167,
      "குற்றம் சாட்டப்பட்ட": 6168,
      "வற": 6169,
      "दें": 6170,
      "స్పంద": 6171,
      " ಕುಮಾರ್": 6172,
      "उदाहर": 6173,
      "शहर": 6174,
      "ಒಳ್ಳ": 6175,
      "ದ ಹ": 6176,
      "ಫ್ ": 6177,
      "ರಾಜಕೀಯ": 6178,
      "నీరు ": 6179,
      "ಪಾಲ್": 6180,
      " समझ": 6181,
      "స్లో ": 6182,
      "प्रो": 6183,
      " ಆರೋಗ್ಯ": 6184,
      "ಕರ್ತ": 6185,
      "मैच": 6186,
      "स्थान ": 6187,
      "డిమాండ్ ": 6188,
      "ು ಮತ್ತು ": 6189,
      "ట్టు ": 6190,
      "తీర్": 6191,
      "ತ್ಮಕ": 6192,
      "அப்ப": 6193,
      "ப்பிர": 6194,
      "ದ್ದು": 6195,
      "இயக்கு": 6196,
      "ಜಿಲ್ಲಾ": 6197,
      "ಲೂ ": 6198,
      "விளைவ": 6199,
      "नए ": 6200,
      "த்தையும் ": 6201,
      "ದಗ": 6202,
      "ಸೈ": 6203,
      "ித்தது": 6204,
      "அறிக்க": 6205,
      "ప్రదర్శ": 6206,
      "ல் மற்றும் ": 6207,
      "ಳಿ": 6208,
      "एक सा": 6209,
      "ுழந்த": 6210,
      "ஒருவர": 6211,
      "दिखा": 6212,
      "ప్పటికీ": 6213,
      "ஆரோக்கிய": 6214,
      "கர்நாட": 6215,
      "ಮುಂದುವ": 6216,
      "ೇತ": 6217,
      "ఆరోప": 6218,
      "में से ": 6219,
      "డిన ": 6220,
      "चाल": 6221,
      "நாட்கள": 6222,
      "धन ": 6223,
      "पित": 6224,
      "हमे": 6225,
      "ಲಾಯಿತು": 6226,
      "ానని ": 6227,
      "బాధ్య": 6228,
      " ಬಳಿಕ": 6229,
      "लुरु": 6230,
      "గల ": 6231,
      "చదవ": 6232,
      "इसक": 6233,
      "స ": 6234,
      "ోష": 6235,
      "्यों ": 6236,
      "हुई ": 6237,
      "ிற்கு ": 6238,
      "శాస్త్ర": 6239,
      "मामला दर्ज किया गया है": 6240,
      "24 ": 6241,
      "சார": 6242,
      "ುತ್ತೇನೆ": 6243,
      "ுங்க": 6244,
      "ೀಕರ": 6245,
      "अंति": 6246,
      "ఈ కార్యక్రమ": 6247,
      "ड़क": 6248,
      "ுறித்து ": 6249,
      "ைப் பெற": 6250,
      "சொல்ல": 6251,
      "ுற்ற": 6252,
      "முதல்": 6253,
      "बड़ा ": 6254,
      "ஊடக": 6255,
      "ிப் ப": 6256,
      "रिपोर्": 6257,
      "ಒತ್ತ": 6258,
      "ி வர": 6259,
      "కరమైన ": 6260,
      "அழைக்க": 6261,
      "ುಕೊಳ್ಳ": 6262,
      "साइ": 6263,
      "లక్షల ": 6264,
      "/ ": 6265,
      "धो": 6266,
      "ल ने ": 6267,
      "முயற்ச": 6268,
      "திரைப்பட": 6269,
      "உள": 6270,
      "் மிகவும் ": 6271,
      "त्व ": 6272,
      "अभिय": 6273,
      "उत्पाद": 6274,
      "డంతో ": 6275,
      "నగర": 6276,
      " जो ": 6277,
      "गर ": 6278,
      "ைந்த ": 6279,
      "దాహ": 6280,
      "ी में ": 6281,
      "ियाँ ": 6282,
      "ு பிர": 6283,
      "बारे ": 6284,
      "యంగా ": 6285,
      "बर्": 6286,
      "ముంబ": 6287,
      "ಮಾಜಿಕ": 6288,
      "इतना ": 6289,
      "పిక": 6290,
      "క్స్ ": 6291,
      "வாங்க": 6292,
      "ध्यान ": 6293,
      "ನಿಕ": 6294,
      "तस्वी": 6295,
      "हत ": 6296,
      "ించాలని ": 6297,
      "பத்தில் ": 6298,
      "ಬಯ": 6299,
      " ಸೇವ": 6300,
      "బడుతుంది": 6301,
      "యువ": 6302,
      "ప్రేమ": 6303,
      "ತಿಕ್ರಿಯ": 6304,
      "ீர்களா": 6305,
      "ியும் ": 6306,
      "ಮೀರ": 6307,
      "అద్": 6308,
      "ವಾಗಿ": 6309,
      "పొందు": 6310,
      "தீவிர": 6311,
      "బంగ": 6312,
      "ಪೆ": 6313,
      "ுகள்": 6314,
      "ಬೇಕಾಗ": 6315,
      "उपस्थित थे": 6316,
      "நிகழ்ச்சியில் ": 6317,
      " ನಾಯಕ": 6318,
      "சுவ": 6319,
      "போராட்ட": 6320,
      "ருக்கு ": 6321,
      "ಿಗೆ": 6322,
      "स्कू": 6323,
      " की आवश्यकता है": 6324,
      "22 ": 6325,
      "ஈட": 6326,
      "்கிறது": 6327,
      "कड़": 6328,
      "सह": 6329,
      "ில்நுட்ப": 6330,
      "ಲಾವಣ": 6331,
      "ంః ": 6332,
      "ాలతో ": 6333,
      "ಖಾನ್": 6334,
      "निर्णय ": 6335,
      "टू": 6336,
      "உள்ளிட்ட": 6337,
      "रूर": 6338,
      "బీజేపీ": 6339,
      "आरोप ": 6340,
      "అంది": 6341,
      "ಚರ್ಚ": 6342,
      "या है": 6343,
      "ಘಾತ": 6344,
      "மி ": 6345,
      "వెళ్ళ": 6346,
      "మవు": 6347,
      "చేస్తున్నారు": 6348,
      "तार ": 6349,
      "మిళ": 6350,
      "ஆனால் அது ": 6351,
      "ಡಿಯೋ": 6352,
      "வீரர்கள": 6353,
      "बर": 6354,
      "భయ": 6355,
      "విరా": 6356,
      "ಟಾ": 6357,
      "उत्तर ": 6358,
      "శిక్ష": 6359,
      "जाती है": 6360,
      "ों में से ": 6361,
      "ாப": 6362,
      "न ने ": 6363,
      "ಜಾಗ": 6364,
      "ಷ್ಣ": 6365,
      "அவர் ப": 6366,
      "అలాగే ": 6367,
      "எங்க": 6368,
      "ಮ್ಮೆ ": 6369,
      "అందువల్ల": 6370,
      "ిత్ ": 6371,
      "ులుగా ": 6372,
      " ಅವರನ್ನು ": 6373,
      "అధికారులు ": 6374,
      "दिल्ली ": 6375,
      "ಸದ್ಯ": 6376,
      "ंगलुरु": 6377,
      " ದು": 6378,
      "పైగా ": 6379,
      "टीम ": 6380,
      " ಭಾಗ": 6381,
      "ಕಲ": 6382,
      "ವಿವಿಧ": 6383,
      "ವಾಗಿತ್ತು": 6384,
      "నీటి ": 6385,
      "నష్ట": 6386,
      "వహి": 6387,
      "లు మరియు ": 6388,
      "गति": 6389,
      "த்திலிருந்து ": 6390,
      "బ్ద": 6391,
      " ಹೊಸ": 6392,
      "यहाँ": 6393,
      "ಸಭಾ": 6394,
      "సార్లు ": 6395,
      "సభ ": 6396,
      "दान ": 6397,
      "ஆர்வ": 6398,
      "వివర": 6399,
      "ಹೇ": 6400,
      " ಹೆಸ": 6401,
      "దర్శక": 6402,
      "ఉగ్ర": 6403,
      " कारण ": 6404,
      " ಪರ": 6405,
      "దశ": 6406,
      "हार ": 6407,
      "समय": 6408,
      "वो": 6409,
      "ಸಾಧ": 6410,
      "ಹೋದರ": 6411,
      " करने में ": 6412,
      "எளித": 6413,
      "सै": 6414,
      "அத்தக": 6415,
      "ం కాదు": 6416,
      "ேயே ": 6417,
      "என்றால் என்ன": 6418,
      "ப்படுகின்றன": 6419,
      "ा करना ": 6420,
      "ట్రో": 6421,
      "पानी": 6422,
      "11": 6423,
      "शामिल हैं": 6424,
      "కేసు నమోదైంది": 6425,
      "எங்கள": 6426,
      "ಬ್ದ": 6427,
      "அவசிய": 6428,
      "मामले में ": 6429,
      "దండ్ర": 6430,
      "मूल": 6431,
      "ఎన్నికల ": 6432,
      "తల్లిదండ్ర": 6433,
      "ణంగా ": 6434,
      "பெண்கள": 6435,
      "చేసిన": 6436,
      "अधिकारी ": 6437,
      "रंग": 6438,
      "2020 ": 6439,
      "ந்துவிட்ட": 6440,
      "விரைவில் ": 6441,
      "ஆல": 6442,
      "స్సు ": 6443,
      "మార్కె": 6444,
      "పడ్డారు": 6445,
      "जिम्मे": 6446,
      "ಹಲವು ": 6447,
      "పరుగ": 6448,
      "ுதல்": 6449,
      "அன்ப": 6450,
      "ఆత్మ": 6451,
      "ுக்கிய ": 6452,
      "ंद्रीय ": 6453,
      "க்கர": 6454,
      "ವಿರುದ್ಧ": 6455,
      "वाई ": 6456,
      "लाभ ": 6457,
      "காந்த": 6458,
      "म्मान": 6459,
      "శివ": 6460,
      "வெளிப்படுத்த": 6461,
      "ಸಂತ": 6462,
      "धान ": 6463,
      "கி": 6464,
      "ோன்ற": 6465,
      "కను": 6466,
      "డం లేదు": 6467,
      " முத": 6468,
      "प्प": 6469,
      "उसकी ": 6470,
      "आत्": 6471,
      "घर ": 6472,
      "க்க ": 6473,
      "చ్ఛ": 6474,
      "ದ ಬಗ್ಗೆ ": 6475,
      "ைகள்": 6476,
      "ಭೇಟಿ ": 6477,
      "సిబ్బ": 6478,
      "पर्या": 6479,
      "ோது": 6480,
      "ించలేదు": 6481,
      "இரண்டாவது ": 6482,
      "ಬಾರದು": 6483,
      "ற்றிய ": 6484,
      "ிங் ": 6485,
      "వినియోగ": 6486,
      "டிர": 6487,
      "ஸ் க": 6488,
      "పుల": 6489,
      "வாள": 6490,
      "आवश्य": 6491,
      "కుంటున్న": 6492,
      "ேர்ந்த": 6493,
      "ాయని ": 6494,
      "ಿಸುತ್ತೇ": 6495,
      "ரவ": 6496,
      "தெரி": 6497,
      "భారతదేశం ": 6498,
      "ానే ": 6499,
      "ఆందోళ": 6500,
      "ಸ್ಯೆ": 6501,
      "से अधिक ": 6502,
      "నుంచి ": 6503,
      "வடிவ": 6504,
      "ಬದ": 6505,
      "ಇದರಲ್ಲಿ ": 6506,
      "ओं को ": 6507,
      "ಕ್ ": 6508,
      "ತಿಹಾಸ": 6509,
      "मीडिया ": 6510,
      "ఉదాహ": 6511,
      "அது": 6512,
      "అవార్": 6513,
      "ಇಂಡ": 6514,
      "ருத்து": 6515,
      "குதியில் ": 6516,
      "மும்ப": 6517,
      "ಭಿನ": 6518,
      "ಈಗಾಗಲೇ": 6519,
      " ಮಗ": 6520,
      "ಆರೋಗ್ಯ": 6521,
      "टो": 6522,
      "స్నే": 6523,
      "ுகிறேன்": 6524,
      "ராம": 6525,
      " केवल ": 6526,
      "ಇಂತಹ": 6527,
      "ுறைய": 6528,
      "ತೋರಿಸ": 6529,
      "ூர்": 6530,
      "ಕ್ಷಿಣ": 6531,
      " ಸಮಸ್ಯ": 6532,
      "चौ": 6533,
      "ುಕಟ್ಟ": 6534,
      "विरोध ": 6535,
      "गंभीर ": 6536,
      "80 ": 6537,
      "ರಷ್ಟು ": 6538,
      "ఆదేశ": 6539,
      "இந்த பட": 6540,
      "நடந்த": 6541,
      " ದೊ": 6542,
      " क्यों": 6543,
      "नो": 6544,
      "ಅನೇಕ": 6545,
      "ುಗಳ": 6546,
      "ದಾನ": 6547,
      "ளாதார": 6548,
      "పడు": 6549,
      "ಿರುವುದು ": 6550,
      "బ్ల": 6551,
      "గుర": 6552,
      "ते हैं कि ": 6553,
      "నాయక": 6554,
      "సినిమా ": 6555,
      "ಜೋ": 6556,
      "प्रदर्शन": 6557,
      "ுடன் ப": 6558,
      "ಹೀಗೆ ": 6559,
      "इसके अलावा": 6560,
      "வ்வளவு ": 6561,
      "शं": 6562,
      "எங்களுக்கு ": 6563,
      " ಜೀವನ": 6564,
      "ನಿರ್ವಹ": 6565,
      "ಕರ್ನಾಟಕ": 6566,
      "ಿ ಪ": 6567,
      "ப்பை ": 6568,
      "పర్యా": 6569,
      "भविष": 6570,
      "பின்": 6571,
      "जल्द ": 6572,
      "ಹರಣ": 6573,
      "ೆ ಎಂದು ": 6574,
      "ప్రవేశ": 6575,
      " ನಡೆಯ": 6576,
      "महिला ": 6577,
      "बाइब": 6578,
      "ங்கர": 6579,
      "बस ": 6580,
      "రల్ ": 6581,
      "ಕಾಶ್": 6582,
      "उपा": 6583,
      "இஸ்": 6584,
      "சல": 6585,
      "ರಸ್ತ": 6586,
      " ಕರ್": 6587,
      "పోరా": 6588,
      "अभिनेत्र": 6589,
      "ஆர": 6590,
      "ಪ್ರಾಯ": 6591,
      " ಉಪ": 6592,
      "న్నింట": 6593,
      "టై": 6594,
      "దె": 6595,
      "్యు": 6596,
      "அமெரிக்க": 6597,
      "ರಾಟ": 6598,
      "शुरु": 6599,
      "ಯಾರು ": 6600,
      "संख्या ": 6601,
      "ಕೆಯ": 6602,
      "ೃಹ": 6603,
      "கேள்வ": 6604,
      " ನಡೆಸ": 6605,
      "இடையே ": 6606,
      "மி": 6607,
      "ಕೇವಲ": 6608,
      "పరీక్ష": 6609,
      "விமான": 6610,
      "எஸ் ": 6611,
      "கரு": 6612,
      "ேஷ": 6613,
      "துப்ப": 6614,
      "బాటులో ": 6615,
      "గొప్ప ": 6616,
      "இங்கு ": 6617,
      "हरा": 6618,
      "ಆರೋಪ": 6619,
      "ने की": 6620,
      "ುತ್ತೇವೆ": 6621,
      "ನ್ನೂ ": 6622,
      "ಪ್ರದೇಶ": 6623,
      "కెప్టె": 6624,
      "ದ ಮೇಲೆ ": 6625,
      "मिले": 6626,
      "अन्य": 6627,
      "பிட": 6628,
      " ಆರಂಭ": 6629,
      "जरूर": 6630,
      "தா ": 6631,
      "ಕಟ್ಟ": 6632,
      "ತ್ತೀ": 6633,
      "ಕೊಟ್ಟ": 6634,
      "అందుబాటులో ": 6635,
      "హెచ్": 6636,
      "ದ್ದೇಶ": 6637,
      " நீதிமன்ற": 6638,
      "हा कि": 6639,
      "స్స": 6640,
      "ಕಷ್ಟ": 6641,
      "भव": 6642,
      "ీవు": 6643,
      "ನಾಥ": 6644,
      "चाहिए ": 6645,
      "भोज": 6646,
      "ಜೀವ": 6647,
      "ಬು": 6648,
      "ಹೈ": 6649,
      "ருந்த": 6650,
      "मौके ": 6651,
      "हालाँ": 6652,
      " का उपयोग": 6653,
      "பெரும்ப": 6654,
      "రాజకీయ ": 6655,
      "గమ": 6656,
      "రకు ": 6657,
      "ర్లో ": 6658,
      "స్తు ": 6659,
      "பிரச்சின": 6660,
      "ಹೀಗಾಗಿ ": 6661,
      "ಪ್ರತಿಯ": 6662,
      "श्मी": 6663,
      "తాను ": 6664,
      "తమిళ": 6665,
      "ப் போக": 6666,
      "కాశ్": 6667,
      "ಚೆನ್ನ": 6668,
      "आयोज": 6669,
      "ியான": 6670,
      "విమాన": 6671,
      "मंड": 6672,
      "ಇವೆ": 6673,
      "फल": 6674,
      "அதில் ": 6675,
      "పరి ": 6676,
      "तृ": 6677,
      "दिव": 6678,
      "ंक ": 6679,
      "इस्": 6680,
      "ರಾಧ": 6681,
      "అవి ": 6682,
      "बनाए ": 6683,
      "పరిస్థితి ": 6684,
      "నలు": 6685,
      " ವಿಧಾನ": 6686,
      "गांधी ": 6687,
      "ோட": 6688,
      "ೆಗಳನ್ನು ": 6689,
      " कर रही है": 6690,
      "ನೆ ಮಾಡ": 6691,
      "శ్రీ ": 6692,
      "తరల": 6693,
      "ஷ்மீ": 6694,
      "ಾಲಿವು": 6695,
      "प्रया": 6696,
      "முழுவதும் ": 6697,
      "நடவடிக்கை எடுக்க": 6698,
      "అంగీకరించ": 6699,
      "लिय": 6700,
      "ஒத்த": 6701,
      "అమ్మ": 6702,
      "శో": 6703,
      "ಕೊ": 6704,
      "ಮೋದ": 6705,
      "लीवु": 6706,
      "गै": 6707,
      "್ರೀ": 6708,
      ". ”\r\n": 6709,
      "மாக இருக்க": 6710,
      "కాశ్మీ": 6711,
      "ाम ": 6712,
      "ಧರಿಸ": 6713,
      "ल्प": 6714,
      "ல்விய": 6715,
      "మాట్లాడు": 6716,
      " ಕ್ಷೇತ್ರ": 6717,
      "కోవడానికి ": 6718,
      "नुकसान ": 6719,
      "తదు": 6720,
      "కాంగ్రెస్": 6721,
      "मोदी ने ": 6722,
      "ன் ம": 6723,
      "ಾರು ": 6724,
      "ప్రో": 6725,
      "ಸಾಕಷ್ಟು ": 6726,
      "भाजप": 6727,
      "ந்து கொள்ள": 6728,
      "श्रृ": 6729,
      "वास": 6730,
      "वाली ": 6731,
      "पीड़": 6732,
      "மானது": 6733,
      "విశ్వా": 6734,
      "தொழில": 6735,
      "यह क": 6736,
      "எழுத": 6737,
      "దానికి ": 6738,
      "्षेत्र में ": 6739,
      "एस ": 6740,
      "சிறிய ": 6741,
      "டாக்ட": 6742,
      "ಕ್ಕಿಂತ": 6743,
      "ಚ್ಛ": 6744,
      "तम ": 6745,
      "அமைதிய": 6746,
      "शिकायत ": 6747,
      "दिय": 6748,
      "ಲನ": 6749,
      "ித் ஷ": 6750,
      "प्रका": 6751,
      "ಯಾವಾಗ": 6752,
      "ைப் பெற்ற": 6753,
      "மாணவர்கள": 6754,
      "उच": 6755,
      "ಿಸುವುದ": 6756,
      "செய்தனர்": 6757,
      "शल ": 6758,
      "ों के साथ ": 6759,
      "ಜನಿಕ": 6760,
      "ுக்கு எதிராக ": 6761,
      "வைத் த": 6762,
      "దక్షి": 6763,
      " सो": 6764,
      " கால": 6765,
      "ఉపాధ్య": 6766,
      "కే ": 6767,
      "నన్ను ": 6768,
      "గిలి": 6769,
      "ಭಾಗವಹ": 6770,
      "డైన ": 6771,
      "ப்போதும் ": 6772,
      "அவர்களின் ": 6773,
      "అయ్య": 6774,
      "ने वाली ": 6775,
      "मूर्": 6776,
      "पेश": 6777,
      "ிவிட்ட": 6778,
      " ಮಟ್ಟ": 6779,
      "ఇది చాలా ": 6780,
      "लॉन्": 6781,
      "ಇಷ್ಟ": 6782,
      "वायर": 6783,
      "बेंगलुरु": 6784,
      "मामले": 6785,
      " ವ್ಯವಸ್ಥ": 6786,
      "स्य ": 6787,
      "ாரா": 6788,
      "मौत हो ": 6789,
      "ீடு ": 6790,
      "ಾರ್ವಜನಿಕ": 6791,
      "दर": 6792,
      "பி ": 6793,
      "ందో ": 6794,
      "సందర్శ": 6795,
      "రోగ": 6796,
      "வர் ப": 6797,
      "ோடி ": 6798,
      "విలు": 6799,
      "ಪ್ರಮುಖ": 6800,
      "ಗುರು": 6801,
      "ೋಣ": 6802,
      "வேக": 6803,
      "மார": 6804,
      "కర్ ": 6805,
      "அதிர": 6806,
      "రాజీ": 6807,
      "क के ": 6808,
      "ும்போது ": 6809,
      "நம்பிக்க": 6810,
      "மக்கள் ": 6811,
      "హ్ల": 6812,
      " ಪ್ರಮಾಣ": 6813,
      "आए": 6814,
      "విన": 6815,
      "हो सकता है": 6816,
      "తదుపరి ": 6817,
      "பங்க": 6818,
      "వెను": 6819,
      "ప్రతి ఒక్కరూ ": 6820,
      "லா ": 6821,
      "రాల": 6822,
      " ಕೇಂದ್ರ": 6823,
      "श्रृंख": 6824,
      "ஜய": 6825,
      "ட்கள": 6826,
      "ులపై ": 6827,
      " ಆರೋಪ": 6828,
      "ులు మరియు ": 6829,
      "இருந்த ": 6830,
      "ராகுல் க": 6831,
      "भर्ती": 6832,
      " ಎಂ": 6833,
      "दिल्ली": 6834,
      "முன்பு ": 6835,
      "ில் உள்ள ": 6836,
      " ಮಹಿ": 6837,
      "அதற்க": 6838,
      "मही": 6839,
      "ಸೌ": 6840,
      "అతన్ని ": 6841,
      "बेह": 6842,
      " ಇಂಡಿಯಾ": 6843,
      "ತಂದ": 6844,
      "ంటు": 6845,
      "లేవు": 6846,
      "दुनिया ": 6847,
      "வ்வாறு ": 6848,
      "சகோதர": 6849,
      "ಹತ್ಯ": 6850,
      "आतंक": 6851,
      "ಅಲ್ಲಿ ": 6852,
      "ಾಯಿ ": 6853,
      "தேவை": 6854,
      "அளித்த": 6855,
      "भारत के ": 6856,
      "అక్క": 6857,
      "டே": 6858,
      "ಡಿಎಸ್": 6859,
      "எச்": 6860,
      "“ ": 6861,
      "विरा": 6862,
      "सामन": 6863,
      " कोशि": 6864,
      "अनुम": 6865,
      "शीर्": 6866,
      "विकास": 6867,
      "रे ": 6868,
      "ఉద్": 6869,
      " क्यों ": 6870,
      "ನ್ಯಾಯಾಲಯ": 6871,
      "जांच ": 6872,
      "் தெரிவித்தனர்": 6873,
      "ಬಾದ": 6874,
      "ಮರ": 6875,
      "ಬಹು": 6876,
      "ಸುಮಾರು ": 6877,
      "ಪಡೆದ": 6878,
      "తో పాటు ": 6879,
      "இந்த வழக்க": 6880,
      "ता नहीं है": 6881,
      "విడి": 6882,
      "ாவை ": 6883,
      "ఢిల్లీ": 6884,
      "சித்த": 6885,
      "చర": 6886,
      "రే ": 6887,
      "स्कृ": 6888,
      "मण": 6889,
      "బుల్ ": 6890,
      "क्या आप ": 6891,
      "பாதுகாப்ப": 6892,
      "पर्": 6893,
      "र की ": 6894,
      "ಲಿದ್ದಾರೆ": 6895,
      "ಾಲಕ": 6896,
      "ಬಳಿಕ": 6897,
      "தற்கான ": 6898,
      "பள்ள": 6899,
      " ಸಭ": 6900,
      "చేస్తున్న": 6901,
      "ுபட்ட": 6902,
      "हन": 6903,
      "தங்க": 6904,
      "ತಾನ": 6905,
      "ಲೆಯ": 6906,
      "लोकस": 6907,
      "ಿಮ": 6908,
      "పేరు ": 6909,
      " விரும்ப": 6910,
      "om": 6911,
      "चर्च": 6912,
      "పొంది": 6913,
      "రాజకీయ": 6914,
      "பழ": 6915,
      " के अनु": 6916,
      "பொற": 6917,
      "ंगी": 6918,
      "ते थे": 6919,
      "ொலை ": 6920,
      "ಕೃತ": 6921,
      "நடந்து ": 6922,
      "सिं": 6923,
      "பாகிஸ்தான": 6924,
      "டவுள": 6925,
      "బిత": 6926,
      "ಬೇಡಿ": 6927,
      "மூன்ற": 6928,
      "ट्रो": 6929,
      "உற்பத்த": 6930,
      "ಂಗಾ": 6931,
      "போட்டிய": 6932,
      "తొల": 6933,
      "प्या": 6934,
      "நாடு ": 6935,
      "ఉగ్రవాద": 6936,
      "ர் மற்றும் ": 6937,
      "మంచ": 6938,
      "లోప": 6939,
      "ಅವಕಾಶ": 6940,
      "விசார": 6941,
      "आइ": 6942,
      "करण ": 6943,
      "द्र": 6944,
      "సవ": 6945,
      " ಸೌ": 6946,
      "పోటీ ": 6947,
      "डु": 6948,
      "இரு ": 6949,
      "ता की ": 6950,
      "బాగా ": 6951,
      "ದಾಹರಣ": 6952,
      "వాటిని ": 6953,
      " ಖ": 6954,
      "जन्": 6955,
      "ధర ": 6956,
      "ப்பட்டார்": 6957,
      "लेकिन यह ": 6958,
      "ర్లు ": 6959,
      " ಕಂಪ": 6960,
      "राध": 6961,
      "इसके बाद ": 6962,
      "ಶಾಸ": 6963,
      "ுவதற்கான ": 6964,
      "గత": 6965,
      "ಸಲ್ಲ": 6966,
      "ிக் ": 6967,
      "ுமாற": 6968,
      "விவசாயிகள": 6969,
      "ప్రయాణ": 6970,
      "ಿಯಾದ": 6971,
      "ముగ్": 6972,
      "मिक ": 6973,
      "స్థాని": 6974,
      "ಬಿಡ": 6975,
      "వ్యతిరేకంగా ": 6976,
      "ಸ್ರ": 6977,
      " ಸೋ": 6978,
      "मौके पर ": 6979,
      "थो": 6980,
      "சவ": 6981,
      "చీ": 6982,
      "ுவார்கள்": 6983,
      "ஆசிர": 6984,
      "కోహ్ల": 6985,
      "ಬೇಡ": 6986,
      "ஸ்திர": 6987,
      "भी नहीं ": 6988,
      "అద్భు": 6989,
      "డ్యూ": 6990,
      "ಕ್ಯ": 6991,
      "ையே ": 6992,
      "ಬ್ಬಂದ": 6993,
      "బిజె": 6994,
      "புத்த": 6995,
      " மாட்ட": 6996,
      "ೆಗಳಲ್ಲಿ ": 6997,
      "మందికి ": 6998,
      "வளர்ச்ச": 6999,
      "ஏற்கனவே ": 7000,
      "लना ": 7001,
      "అతి": 7002,
      "స్కృ": 7003,
      " कर दिया ": 7004,
      "ಸಿಗ": 7005,
      "ాలయ": 7006,
      "போது": 7007,
      "உச்ச நீதிமன்ற": 7008,
      "క్యా": 7009,
      "ங்களும் ": 7010,
      "ंगलो": 7011,
      "ದೇವ": 7012,
      "भगवान ": 7013,
      "निर्माण": 7014,
      "ுக்குத் தெரிய": 7015,
      "इसलिए": 7016,
      "ಇಬ್ಬರು ": 7017,
      "ெடுக்க": 7018,
      "निश्चित ": 7019,
      "ఆర్ ": 7020,
      "న్లు ": 7021,
      " ಬೈ": 7022,
      "ప్రస్తుతం ": 7023,
      "కనుగొ": 7024,
      "்ட் ": 7025,
      " किया था": 7026,
      "पहले": 7027,
      "उल्": 7028,
      " ಮತ್ತ": 7029,
      "னா ": 7030,
      "वित्": 7031,
      "ఫలిత": 7032,
      "पत्र ": 7033,
      "ఇష్ట": 7034,
      "చో": 7035,
      "లేరు": 7036,
      "அடையாள": 7037,
      " ಬದ": 7038,
      "రుణ": 7039,
      "ಸಂಬಂಧಿಸಿದ": 7040,
      "నిలిచ": 7041,
      "ఆసుపత్రిలో ": 7042,
      "விருப்ப": 7043,
      " कई ": 7044,
      "నియర్ ": 7045,
      "சமூக ": 7046,
      "ಅನ": 7047,
      " ಹೋ": 7048,
      "సామ": 7049,
      "ನುಷ್ಯ": 7050,
      " कार्य": 7051,
      "ைது செய்யப்பட்ட": 7052,
      "ಗಳಾಗ": 7053,
      "భావి": 7054,
      "மூல": 7055,
      "తూ ": 7056,
      "வர் ச": 7057,
      "ாகக் க": 7058,
      "క్రై": 7059,
      "अभी तक ": 7060,
      "वास्तव में ": 7061,
      "ದಾಯ": 7062,
      "ஆகியவை ": 7063,
      "న్యూ": 7064,
      "ராகுல் காந்த": 7065,
      "ஸ் ப": 7066,
      "धर्म": 7067,
      "वे क": 7068,
      "स्ट ": 7069,
      "ொள்கிற": 7070,
      "వ్యాప్తంగా ": 7071,
      "జెడి ": 7072,
      "ைந்து ": 7073,
      "ೀರಿ": 7074,
      "ಧ್ಯಮ": 7075,
      "హత్య ": 7076,
      "ாள்": 7077,
      "సంగీ": 7078,
      " ಬಾರ": 7079,
      "आज ": 7080,
      "ಬೇರೆ ": 7081,
      "150 ": 7082,
      "த்திலும் ": 7083,
      "ఎక్కువగా ": 7084,
      " ಐ": 7085,
      "వాత": 7086,
      "సుప్రీ": 7087,
      "लेकिन क": 7088,
      "னித": 7089,
      "అని ఆయన అన్నారు": 7090,
      " समा": 7091,
      "ించబడింది": 7092,
      "ித்தன": 7093,
      "రక్షణ ": 7094,
      "प्य": 7095,
      "క్స్": 7096,
      "మద్దతు ": 7097,
      "ಲ್ಯಾ": 7098,
      "ற்ற ": 7099,
      "సాక్ష": 7100,
      "சுற்று": 7101,
      "ఇండియా ": 7102,
      "షి ": 7103,
      "ವಿರೋಧ": 7104,
      "ಂಭೀರ": 7105,
      "ದರ್ಶನ": 7106,
      "కంపె": 7107,
      "தெளிவ": 7108,
      "పూర్తిగా ": 7109,
      "मॉ": 7110,
      "ಪಾರ": 7111,
      "నివా": 7112,
      "இந்தக் க": 7113,
      "लोगों ने ": 7114,
      "కా ": 7115,
      " ಕಾರ್": 7116,
      "మెంట": 7117,
      "కలిగించ": 7118,
      "90 ": 7119,
      "ండ్": 7120,
      "కు చెందిన ": 7121,
      "नाम": 7122,
      "మ్మల్ని ": 7123,
      "సూచ": 7124,
      " ಇದ್ದ": 7125,
      "స్థానంలో ": 7126,
      "ಮಂದಿ ": 7127,
      "కర్ణాటక ": 7128,
      ":2": 7129,
      "மிட": 7130,
      "ிறேன்": 7131,
      "वेद": 7132,
      "மற்றொரு ": 7133,
      "తెలియజే": 7134,
      "खो": 7135,
      "ஜெய": 7136,
      "ைஞ": 7137,
      "ாவுக்கு ": 7138,
      "ಲಾಗಿತ್ತು": 7139,
      "जा रही है": 7140,
      "నా స్థల": 7141,
      " ನಿರ್ದೇಶ": 7142,
      "తీవ్రంగా ": 7143,
      " स्व": 7144,
      "కుమార్తె": 7145,
      "ಾವ": 7146,
      "సమాజ": 7147,
      "दम ": 7148,
      " ಪ್ರಾ": 7149,
      "వరి ": 7150,
      "యుద్ధ": 7151,
      "మూల": 7152,
      "प्रत्ये": 7153,
      "ఆద": 7154,
      "विभाग": 7155,
      "क्योंकि ": 7156,
      "ಸಗ": 7157,
      "நான் ப": 7158,
      "అయిన ": 7159,
      "ಕಾರ್ಯಕ್ರಮ": 7160,
      "வாகன": 7161,
      "ூர் ": 7162,
      "ಯನ": 7163,
      "வேட்ப": 7164,
      "கடந்த ": 7165,
      "ఆరోగ్య ": 7166,
      "भर्ती कर": 7167,
      " समय": 7168,
      "లీ ": 7169,
      "ించుకు": 7170,
      "ಮಾಹಿತಿ ": 7171,
      "மையான ": 7172,
      "அமைக்க": 7173,
      "ज्ञा": 7174,
      "బాలీవు": 7175,
      " ರಾ": 7176,
      "पट": 7177,
      "சாத": 7178,
      "टीम": 7179,
      "ுமாறு ": 7180,
      "ಿಯಲ್ಲ": 7181,
      "ियों की ": 7182,
      "సమస్య ": 7183,
      "வில்லை என்று ": 7184,
      "யில": 7185,
      "ೇಶ್": 7186,
      "ಗಳಲ್ಲ": 7187,
      "చేయాలని ": 7188,
      "நான் க": 7189,
      "शी ": 7190,
      "ில் க": 7191,
      "ರೋಪಿ": 7192,
      "தமிழ": 7193,
      "हैं और ": 7194,
      "ಪ್ರತಿಭಟ": 7195,
      "ால் த": 7196,
      "அருக": 7197,
      "నివేద": 7198,
      "ರು ಮತ್ತು ": 7199,
      "சமூக": 7200,
      "37": 7201,
      "ಶೋಧ": 7202,
      "ఘటనా స్థల": 7203,
      "ఇంజి": 7204,
      "రారు": 7205,
      "ாள் ": 7206,
      "ಸೀ": 7207,
      " ಪರೀಕ್ಷ": 7208,
      "नागर": 7209,
      "ைக் குற": 7210,
      "व्यक्ति ": 7211,
      "ఎందుకంటే ": 7212,
      "ಳಗೆ ": 7213,
      "తగ్గ": 7214,
      "விய": 7215,
      "ವಾಗುತ್ತದೆ": 7216,
      "ंस ": 7217,
      "ವರದ": 7218,
      "త్ర ": 7219,
      "परमेश्वर": 7220,
      "ாவல் நிலையத்தில் வழக்கு பதிவு செய்யப்பட்ட": 7221,
      "చరి": 7222,
      "குப்ப": 7223,
      "குடி": 7224,
      "மண": 7225,
      "ारा": 7226,
      "ించబడ": 7227,
      " ಹಣ": 7228,
      ": “": 7229,
      " ಪರಿಣಾಮ": 7230,
      "் கலந்து கொண்டனர்": 7231,
      "జయ": 7232,
      "కనిపించ": 7233,
      "ఢిల్లీ ": 7234,
      "अफ": 7235,
      "ఎల్ ": 7236,
      "ఫ్ర": 7237,
      "ನೆಗಳು ": 7238,
      " ತಂದ": 7239,
      "नियंत्र": 7240,
      "ಇನ್ನೂ": 7241,
      " ಇದೆ": 7242,
      "రహదార": 7243,
      "ಉದ್ಯ": 7244,
      "ಣಿ": 7245,
      "एम ": 7246,
      "ತಂತ್ರ": 7247,
      "ುತ್ತಾನೆ": 7248,
      "ಪೋ": 7249,
      "ஆன்": 7250,
      "కాలం ": 7251,
      "నియమ": 7252,
      "ఎవరు ": 7253,
      "ರಾಹುಲ್ ಗಾಂಧ": 7254,
      "ட்க": 7255,
      "కోట్ల రూపాయ": 7256,
      "ிஃ ": 7257,
      "ఎఫ్": 7258,
      "ೇಕ": 7259,
      "ार्य": 7260,
      "ம் செலுத்த": 7261,
      "ளிர": 7262,
      "ಕೊಂಡ": 7263,
      "త్వాన్ని ": 7264,
      "गुज": 7265,
      "நாயக": 7266,
      "డబ్బు ": 7267,
      "ट में ": 7268,
      "తులను ": 7269,
      " सू": 7270,
      "அதற்கு ": 7271,
      "పూర్ ": 7272,
      "నిర్ణయం ": 7273,
      "अनुमति ": 7274,
      "ஆட்ட": 7275,
      " के दौरान ": 7276,
      "లోకి ": 7277,
      "ிருந்தார்": 7278,
      "நடைபெற": 7279,
      "ಕನ್ನಡ": 7280,
      "ೆ ಮತ್ತು ": 7281,
      "குடிய": 7282,
      "ಇರುವ": 7283,
      "லுக்கு ": 7284,
      " ಕಿ": 7285,
      "ಶ್ವಾಸ": 7286,
      "ಗೂ": 7287,
      "కేసు": 7288,
      "बॉलीवु": 7289,
      "இளைஞ": 7290,
      "జరు": 7291,
      "ತಮಿ": 7292,
      "நேரம் ": 7293,
      "विधानस": 7294,
      "जल": 7295,
      "ர்க": 7296,
      "ிற்ப": 7297,
      "वाप": 7298,
      "నమోదు ": 7299,
      "హ్మ": 7300,
      "ಕಂಪ": 7301,
      "அடங்க": 7302,
      "400 ": 7303,
      "పాట": 7304,
      "समझ": 7305,
      "ప్రజల ": 7306,
      "కొనసాగు": 7307,
      "ಶಿವ": 7308,
      "अधि": 7309,
      "जद ": 7310,
      "ा की ": 7311,
      "நப": 7312,
      "ತಿಯನ್ನು ": 7313,
      "గౌరవ": 7314,
      " ಅಭಿ": 7315,
      "జాబిత": 7316,
      " कोशिश": 7317,
      "సుప్రీం": 7318,
      "ಿದ್ದರೆ ": 7319,
      "ఈ సంఘట": 7320,
      "కొంత": 7321,
      " ಕೈಗೊಳ್ಳ": 7322,
      "ಮೂರು ": 7323,
      "— ": 7324,
      " किया गया था": 7325,
      "ಿಕೊ": 7326,
      "बन ": 7327,
      "க்கார": 7328,
      "ವಿವರ": 7329,
      "ಪ್ರತಿ ": 7330,
      "ಿಸಿತು": 7331,
      "े कारण ": 7332,
      "ாரணமாக ": 7333,
      "ಪುಟ": 7334,
      "மோச": 7335,
      " के कारण ": 7336,
      "प्रभु ": 7337,
      "றி": 7338,
      "షా": 7339,
      " ಮಿ": 7340,
      "వాస్త": 7341,
      "ంగా ఉన్న": 7342,
      "తిక": 7343,
      "ಳಾ": 7344,
      "भविष्य": 7345,
      "అప్ప": 7346,
      " ಮಾತ": 7347,
      "समस": 7348,
      " ಆಗಿದೆ": 7349,
      "సమావేశంలో ": 7350,
      "అడ": 7351,
      "ುಗಳನ್ನು ": 7352,
      "సెంబ": 7353,
      "पॉ": 7354,
      "స్వీ": 7355,
      "ಕುಮಾರ": 7356,
      "जगह ": 7357,
      "वरि": 7358,
      "ಚಾ": 7359,
      "ಫ್ರ": 7360,
      " ಬರ": 7361,
      "தந்த": 7362,
      "ಅದೇ": 7363,
      "ప్రాయ": 7364,
      " ಪದ": 7365,
      "సంస్థ ": 7366,
      "ಲೆಯಲ್ಲಿ ": 7367,
      "ಲ್ಪಡ": 7368,
      "ಸ್ಥಾಪ": 7369,
      "ಮೃತ": 7370,
      "्रो": 7371,
      "प्रतिक": 7372,
      "ருட": 7373,
      "ர்களுக்கு ": 7374,
      "शह": 7375,
      "िति": 7376,
      "தள": 7377,
      "लाख": 7378,
      "సాహ": 7379,
      "ಟ್ ಮಾಡ": 7380,
      "பயன்படுத்த": 7381,
      "बच्चे ": 7382,
      "సందర్భంగా ": 7383,
      "तैयार": 7384,
      "చెంద": 7385,
      "మేరకు ": 7386,
      "ళ్లు ": 7387,
      "खरी": 7388,
      "దాని గురించి ": 7389,
      "शरी": 7390,
      "மின": 7391,
      "నేర్చ": 7392,
      "थीं": 7393,
      "मामल": 7394,
      "నాల ": 7395,
      "जाते हैं": 7396,
      "గోళ": 7397,
      "ನೀವು ": 7398,
      "ியுள்ளார்": 7399,
      "்சார": 7400,
      "प्रणा": 7401,
      "லாச்சார": 7402,
      "அணி ": 7403,
      "ఖర్చ": 7404,
      "ಏನು": 7405,
      "ತೀವ್ರ": 7406,
      "जाने": 7407,
      "ವೈದ್ಯ": 7408,
      "ಪ್ರಯತ್ನ": 7409,
      "पूरा ": 7410,
      "ేషన్ ": 7411,
      "சிகிச்சை ": 7412,
      "बड़े ": 7413,
      "ஆள": 7414,
      "ियोज": 7415,
      "இருவரும் ": 7416,
      "పిలు": 7417,
      "మరొ": 7418,
      "ஆகிய ": 7419,
      "त की": 7420,
      "ऐसे ": 7421,
      " को क": 7422,
      "சாத்திய": 7423,
      " ಇಲಾಖ": 7424,
      "விசாரணை நடத்த": 7425,
      "ದನ್ನು ": 7426,
      "परियोज": 7427,
      "ಷನ್": 7428,
      "र्नाट": 7429,
      "ಪ್ತ": 7430,
      "मान्य ": 7431,
      "உங்கள் க": 7432,
      "வாழ்க்கை ": 7433,
      "ನವ": 7434,
      "ಬೆಂಗಳೂ": 7435,
      "ఇలాంటి ": 7436,
      "బద్ధ": 7437,
      "ೆಯಲ್ಲ": 7438,
      "నిల": 7439,
      "வேற்ற": 7440,
      "ఫోన్ ": 7441,
      " तो ": 7442,
      "లభ": 7443,
      "ಅರ್ಥ": 7444,
      "ंदर ": 7445,
      "याद": 7446,
      "కోవాలి": 7447,
      "ఇదే ": 7448,
      "99": 7449,
      "நுழ": 7450,
      "సంగ": 7451,
      "ುತ್ತಮ": 7452,
      "ందర": 7453,
      " सभी": 7454,
      "విభాగ": 7455,
      "ಿದ್ದೆ": 7456,
      "வீட": 7457,
      "சொந்த ": 7458,
      "ఇటీ": 7459,
      "ொண்ட ": 7460,
      " ಸಾಮ": 7461,
      "चो": 7462,
      "ी को ": 7463,
      "முள்ள": 7464,
      "ಮಿತ್": 7465,
      "వంతమైన ": 7466,
      "బయట": 7467,
      "ांग्रेस ": 7468,
      "पहले ही ": 7469,
      "பெரும் ": 7470,
      "సంబంధించి ": 7471,
      "కండి": 7472,
      "ಕೀ": 7473,
      "రాజ్ ": 7474,
      " ಸರಕಾರ": 7475,
      "ವಾಗಿಲ್ಲ": 7476,
      "ప్రజలకు ": 7477,
      "பாதுகாப்பு ": 7478,
      "हमेशा ": 7479,
      "ಗಿ": 7480,
      "ನೆಯನ್ನು ": 7481,
      " की गई है": 7482,
      "ముఖ్యమైన ": 7483,
      "தொலை": 7484,
      "ಮತ್ತೆ ": 7485,
      "ఆమో": 7486,
      "ವಾಗಿರ": 7487,
      "देश में ": 7488,
      "मृत्य": 7489,
      "ఉదాహరణ": 7490,
      "దెబ్బ": 7491,
      "வட்ட": 7492,
      "ுண": 7493,
      "ವರನ್ನು ": 7494,
      "ವರೆಗ": 7495,
      "ಾಯಿ": 7496,
      "ತಿಳಿಯ": 7497,
      "డా ": 7498,
      "ಕ್ಕೂ ": 7499,
      "దేవ": 7500,
      "डॉक्": 7501,
      "వద్దు": 7502,
      "ದೂರ": 7503,
      "ಮಿತ": 7504,
      " ತನ್ನ": 7505,
      "ారీ": 7506,
      " कर दिया": 7507,
      "గ్ ": 7508,
      "िया के ": 7509,
      "्षेत्र ": 7510,
      "शान": 7511,
      "ಿಸಬಹುದು": 7512,
      "ವಿನ": 7513,
      "ఎవరి": 7514,
      "ಂಡ್ ": 7515,
      "ಶಿಕ್ಷ": 7516,
      "சேர்க்க": 7517,
      " ಮಾರ್ಗ": 7518,
      "आवा": 7519,
      "மாத": 7520,
      "எதிர்பார்க்க": 7521,
      "ಠಾಣೆಯಲ್ಲಿ ಪ್ರಕರಣ ದಾಖ": 7522,
      "तैयार ": 7523,
      "బైబిల్ ": 7524,
      "ಫೈ": 7525,
      "నిరా": 7526,
      "त्मक ": 7527,
      "స్టి": 7528,
      "్లోని ": 7529,
      "முன்": 7530,
      "ತ್ರಿ ": 7531,
      "भाजपा के ": 7532,
      "ಿಸುವುದು ": 7533,
      "వ్యాపార": 7534,
      "బోధ": 7535,
      "ें क": 7536,
      "ल है": 7537,
      "நீண்ட": 7538,
      "हालाँकि": 7539,
      "ಅಮೆರಿಕ": 7540,
      "ட்சிகள": 7541,
      "ప్పటి వరకు ": 7542,
      "गा ": 7543,
      "ியாச": 7544,
      "அணுக": 7545,
      "ಮುಂಬೈ": 7546,
      "होने की ": 7547,
      " ನಾ": 7548,
      "ேள்வ": 7549,
      "விஜய": 7550,
      "बिना ": 7551,
      " ವ್ಯಕ್ತಪಡ": 7552,
      "வகையான ": 7553,
      "फ़": 7554,
      "నాయకులు ": 7555,
      "పరిగణ": 7556,
      "சிறப்பு ": 7557,
      "ఆసుపత్రికి ": 7558,
      "வணிக": 7559,
      "సౌకర": 7560,
      "ఎక్కడ ": 7561,
      "ದಂತೆ ": 7562,
      "ता में ": 7563,
      "फिल्म में ": 7564,
      "ಹೀಗ": 7565,
      "வித்தியாச": 7566,
      "ीय ": 7567,
      "ఎంచ": 7568,
      "పడి ": 7569,
      "செயல்": 7570,
      "हाथ": 7571,
      "—⁠ ": 7572,
      "் திர": 7573,
      " ಎಲ್ಲಾ": 7574,
      "சமீ": 7575,
      "குதி ": 7576,
      " ಮಾಡಿ": 7577,
      "காண": 7578,
      "గ్గ": 7579,
      "போதும் ": 7580,
      "ுள்ளதாக ": 7581,
      " कोह": 7582,
      "హారా": 7583,
      "लं": 7584,
      "ப்": 7585,
      "షల్ ": 7586,
      "इतिहा": 7587,
      "పడుతుంది": 7588,
      "ுவை ": 7589,
      "జాగ్ర": 7590,
      "ுபடுத்த": 7591,
      "गण": 7592,
      "ಏನ": 7593,
      "ರಕ್ಷಣ": 7594,
      "விட ": 7595,
      "முன்னாள": 7596,
      "దేవుడు ": 7597,
      "ऐसा क": 7598,
      "ಮಹಿಳೆಯ": 7599,
      "ೆಟ್ಟ": 7600,
      "் கூற": 7601,
      "ಿಗೂ": 7602,
      "కరణ": 7603,
      "ಸಮಯ": 7604,
      "ఆరోగ్య": 7605,
      "नया ": 7606,
      "यो": 7607,
      "దళ": 7608,
      "प्रक्र": 7609,
      "குஜ": 7610,
      "அழைத்த": 7611,
      "ல்வி ": 7612,
      "जबकि ": 7613,
      " ಕೃ": 7614,
      "न पर ": 7615,
      "అధి": 7616,
      "பணிய": 7617,
      "35 ": 7618,
      "వద్ద ": 7619,
      "ಲಕ್ಷಣ": 7620,
      "चुक": 7621,
      "ுழு ": 7622,
      "पार्टी ": 7623,
      "అమెరిక": 7624,
      "మూర్": 7625,
      "इस प्रकार ": 7626,
      "క్రైస్త": 7627,
      "प्यार": 7628,
      "வேண்ட": 7629,
      "ಜನರ": 7630,
      "హాజర": 7631,
      "ఈ చిత్రం ": 7632,
      "विश्वास": 7633,
      "ಬಲ್ಲ": 7634,
      "ார்ப்ப": 7635,
      "न्याय": 7636,
      "టో ": 7637,
      "ஒருபோதும் ": 7638,
      "बना ": 7639,
      "ேவ": 7640,
      "ಜಾರ": 7641,
      "ಮಾಜಿ ": 7642,
      "संभाव": 7643,
      "சிந்த": 7644,
      "பயன": 7645,
      "ಪ್ರೀಂ": 7646,
      "न करें": 7647,
      "ಜೀವನ": 7648,
      "ர்வதேச": 7649,
      "ప్రాజె": 7650,
      "ைக் கொண்டுள்ளது": 7651,
      "ிவக": 7652,
      "अस्पताल में भर्ती कर": 7653,
      "ஐந்து ": 7654,
      "ல்கள் ": 7655,
      "ಿಯನ್": 7656,
      "செய்தார்": 7657,
      "உணவு ": 7658,
      "நான்கு ": 7659,
      "आन": 7660,
      "बध": 7661,
      "அப்போ": 7662,
      "ಜು": 7663,
      "ೆಂದು ": 7664,
      "ற்று ": 7665,
      "நாட்டில் ": 7666,
      "अभी भी ": 7667,
      "ఒప్ప": 7668,
      "సర్ ": 7669,
      "ನಲ್": 7670,
      "ப்பு": 7671,
      "रहे थे": 7672,
      "ఇంటర్": 7673,
      "ನ್ನೇ": 7674,
      "போக்குவர": 7675,
      "ஜி ": 7676,
      "కాలు ": 7677,
      "ட்டுமே ": 7678,
      "अवसर पर ": 7679,
      "டுப்ப": 7680,
      "నీటి": 7681,
      " ಅವರಿಗೆ ": 7682,
      "సందే": 7683,
      "நிச்ச": 7684,
      " करना चाहिए": 7685,
      "ுடைய": 7686,
      "வழி": 7687,
      " ವೇಳೆ ": 7688,
      "स्तु": 7689,
      "లిం": 7690,
      "ನಿಲ್ಲ": 7691,
      "नहीं आ": 7692,
      "అమలు ": 7693,
      "प्रेर": 7694,
      "पूरी तरह से ": 7695,
      "వస్తు": 7696,
      "సల": 7697,
      "ப்பட்டனர்": 7698,
      "ಸಂಪೂರ್ಣ": 7699,
      "நிறை": 7700,
      "ప్రాణ": 7701,
      "वर्तमान": 7702,
      "நிச்சய": 7703,
      "ाई": 7704,
      "కలా": 7705,
      "వచ్చే ": 7706,
      "ದಕ್ಷಿಣ": 7707,
      "ರಿಸಿ": 7708,
      "ுவதற்கு ": 7709,
      "బాలీవుడ్ ": 7710,
      "तंत्र": 7711,
      "रिक": 7712,
      "హీ": 7713,
      "ಪಿ ": 7714,
      "ంటే": 7715,
      "ಭಾರತದಲ್ಲಿ ": 7716,
      "ప్రధాని నరేంద్ర మోడీ ": 7717,
      "कै": 7718,
      "್ರೆ ": 7719,
      "వివ": 7720,
      "త్తు": 7721,
      "क्स ": 7722,
      "పట్ల ": 7723,
      "డియో ": 7724,
      "इच्छ": 7725,
      "வட": 7726,
      "పక్ష": 7727,
      "ನೆಗಳನ್ನು ": 7728,
      "அவர் ம": 7729,
      " ವ್ಯಾ": 7730,
      "పెద్ద": 7731,
      "ప్రభావ": 7732,
      "ఈ చిత్రంలో ": 7733,
      "లోక్": 7734,
      "सी को ": 7735,
      "அனுமதிக்கப்பட்ட": 7736,
      "తక్కువ ": 7737,
      "अंतिम ": 7738,
      "., ": 7739,
      "ప్రక్రి": 7740,
      " ಸದಸ್ಯ": 7741,
      "ண்ணப்ப": 7742,
      "டைந்த ": 7743,
      " क्रिके": 7744,
      "సిరీ": 7745,
      "ಿಸಿದನು": 7746,
      "మార్ట": 7747,
      "மோடி ": 7748,
      "முடிவு ": 7749,
      "ఆమోద": 7750,
      "భర్": 7751,
      "ாலும்": 7752,
      "ॉले": 7753,
      "దృ": 7754,
      " करते हुए ": 7755,
      "मध": 7756,
      "ஹெ": 7757,
      "ा है कि ": 7758,
      "తీసుకో": 7759,
      "ಗುಣ": 7760,
      "उम्मीदवार": 7761,
      "కోల్ప": 7762,
      "ರ್ಥ್ಯ": 7763,
      "वरण ": 7764,
      "ಬೇಕೆಂದು ": 7765,
      "ಈ ಕುರಿತು ": 7766,
      "बहुत क": 7767,
      "ఇదంతా ": 7768,
      "ರ್ಪ": 7769,
      "बाजा": 7770,
      " ಜಿಲ್ಲ": 7771,
      "కళాశ": 7772,
      "కోల్పో": 7773,
      " ಡ": 7774,
      "ल को ": 7775,
      "ಸನ್": 7776,
      "தொடர்ந்து ": 7777,
      "ಹಾರಾ": 7778,
      "शन ": 7779,
      "దో": 7780,
      " की स": 7781,
      "ों में क": 7782,
      "செய்ய வேண்டும்": 7783,
      "సీనియర్ ": 7784,
      "ಮುಂದಿನ": 7785,
      "अभिनेता ": 7786,
      "అదన": 7787,
      "ಏಕೆ ": 7788,
      "ெரிய ": 7789,
      " ಹಿಂದೆ ": 7790,
      "சரியான ": 7791,
      "बहुत स": 7792,
      "ऐसी ": 7793,
      "ఏదై": 7794,
      "ிறார்": 7795,
      "కాం": 7796,
      "ித்து வர": 7797,
      "भुगत": 7798,
      "அம்ச": 7799,
      "ानीय ": 7800,
      "ఆప": 7801,
      "என் ": 7802,
      "ముందుకు ": 7803,
      "సాధారణ ": 7804,
      "बू": 7805,
      "्या क": 7806,
      "इसी ": 7807,
      "खुद": 7808,
      "ಹಲವಾರು ": 7809,
      "எண்ணெய": 7810,
      "ಗೌರವ": 7811,
      "ಯೇಸು ": 7812,
      "ட்சி": 7813,
      "रेल": 7814,
      "தொழில்நுட்ப": 7815,
      "ಭಯ": 7816,
      "కీర్": 7817,
      "స్వామ": 7818,
      "సంతోష": 7819,
      "हो रहा है": 7820,
      "వినియోగదార": 7821,
      " में क": 7822,
      "யிற்ச": 7823,
      "ೈಲ": 7824,
      "ನಿರ": 7825,
      " किसी ": 7826,
      "फिल्म का ": 7827,
      "మారు ": 7828,
      "राजनीतिक ": 7829,
      " क्षेत्र": 7830,
      "आपकी ": 7831,
      "వే ": 7832,
      "ంగా ఉంటుంది": 7833,
      "बैंक": 7834,
      " कर सक": 7835,
      "ஆணைய": 7836,
      "కై": 7837,
      "ೃದಯ": 7838,
      "ర్ష": 7839,
      "ी कार": 7840,
      "र्मचार": 7841,
      "ை வழங்க": 7842,
      " कर सकते हैं": 7843,
      "எஃப்": 7844,
      "వివాహం ": 7845,
      "பீ": 7846,
      "హృ": 7847,
      " ಪರಿಸ್ಥಿತ": 7848,
      "உள்ளார்": 7849,
      " के लिए एक ": 7850,
      "விளக்க": 7851,
      " करेगा": 7852,
      "உண்மையில் ": 7853,
      "డ్రై": 7854,
      "எப்போதும் ": 7855,
      "ಎಫ್": 7856,
      "ೀಗ": 7857,
      " ಪ್ರಕಾರ": 7858,
      "சிங": 7859,
      "్లో": 7860,
      "விண்ணப்ப": 7861,
      " ಪ್ರಯತ್ನ": 7862,
      "रोक": 7863,
      "ಸಿನಿಮಾ": 7864,
      "ಕಾಶ್ಮೀರ": 7865,
      "ಬಿ ": 7866,
      " ಕೆಲವು ": 7867,
      "தில்லை": 7868,
      "జర్": 7869,
      "ಜ್ಯ": 7870,
      "ನಿಮ": 7871,
      "வாச": 7872,
      " ಬ್ಯಾಂಕ್": 7873,
      " ಜೊತೆ ": 7874,
      "बेहतर ": 7875,
      "4:": 7876,
      "ரி ": 7877,
      "நடந்தது": 7878,
      "ணக்கான ": 7879,
      "ल्प ": 7880,
      " ಚಿ": 7881,
      "ఇప్పటి వరకు ": 7882,
      "ಜರಾ": 7883,
      "ನಾಲ್ಕು ": 7884,
      "ఖాన్ ": 7885,
      "ರ್ಮಾ": 7886,
      " ಬಂಧ": 7887,
      "ನೀಡಿದ್ದಾರೆ": 7888,
      "प्रतिक्र": 7889,
      "ಮಟ್ಟ": 7890,
      "ವರಣ": 7891,
      " ನಂಬ": 7892,
      "ಜೆಡಿಎಸ್": 7893,
      "ಿಕೊಂಡು ": 7894,
      "సోదర": 7895,
      "ಾಲಿವುಡ್": 7896,
      "త్యా": 7897,
      "సొ": 7898,
      "– ": 7899,
      "ವಾಯಿತು": 7900,
      "విద్యార్థులు ": 7901,
      "ின்பற்ற": 7902,
      "ಲಿಯಾ": 7903,
      " வேண்டிய": 7904,
      "పర్య": 7905,
      "ுடன் க": 7906,
      "डर": 7907,
      "ಸಂಗ": 7908,
      "ఎన్నికల్లో ": 7909,
      "ఏదైనా ": 7910,
      "ित्": 7911,
      "అంత ": 7912,
      "ೇಸ್": 7913,
      "ఉత్పత్తి ": 7914,
      "గెలుచుకు": 7915,
      "खान": 7916,
      "அச்ச": 7917,
      "ಮೋದಿ ": 7918,
      "ுவார்": 7919,
      "உறவ": 7920,
      "உல": 7921,
      "ఉల్ల": 7922,
      "ಪಂದ್ಯ": 7923,
      " ಅಂತ": 7924,
      " कार्रवाई": 7925,
      "ಸ್ಥಿತರಿದ್ದರು": 7926,
      "बर ": 7927,
      "ిపోయ": 7928,
      " करो": 7929,
      "भाग लिया": 7930,
      "ದೂರು ": 7931,
      "నాన్ని ": 7932,
      "ின் மு": 7933,
      "द्ध ": 7934,
      "चीज": 7935,
      "ಯೆಹೋವನು ": 7936,
      "पूरे ": 7937,
      "డిక": 7938,
      "ी की": 7939,
      "வாழ்த்த": 7940,
      "32 ": 7941,
      "ಉಂಟ": 7942,
      "ாளர": 7943,
      "कर्ष": 7944,
      "रण ": 7945,
      "பரி": 7946,
      "ೈಸ್ತ": 7947,
      "ಿದ್ದವು": 7948,
      "மாக உள்ளது": 7949,
      "न्यू": 7950,
      "वापस ": 7951,
      "బృ": 7952,
      "ைகளுக்கு ": 7953,
      "ಸಿಕ್ಕ": 7954,
      " ತೆಗೆ": 7955,
      "चिकित्": 7956,
      "పరిశీ": 7957,
      "राष्ट्रपति ": 7958,
      "सौ": 7959,
      "ौर पर ": 7960,
      "டீ": 7961,
      "ಪೊಲೀಸ": 7962,
      "ఇచ్చారు": 7963,
      "ठि": 7964,
      "रिय": 7965,
      "ேல": 7966,
      "ರಸ": 7967,
      "ಕುಟುಂಬ": 7968,
      " ವಿದ್ಯಾರ್ಥ": 7969,
      "ಮಕ": 7970,
      "ನಿಗ": 7971,
      "इस बारे में ": 7972,
      "వచ్చిన ": 7973,
      "ಮುಂದೆ ": 7974,
      "ేయ": 7975,
      "్యంలో ": 7976,
      "नेतृ": 7977,
      " ವಿಶ್ವ": 7978,
      "जिसे ": 7979,
      "நல": 7980,
      "ೂ ಇಲ್ಲ": 7981,
      "ொடுக்க": 7982,
      "ಹೇಳಿದ": 7983,
      "நாடுகள": 7984,
      "बढ़ा": 7985,
      " ಬಿಡುಗ": 7986,
      "ప్రజా": 7987,
      "यह भी ": 7988,
      "ता हूं": 7989,
      "కుల ": 7990,
      "ನೆಯಲ್ಲಿ ": 7991,
      "ಿಕೆಯನ್ನು ": 7992,
      "ஒரு பெரிய ": 7993,
      "आपको": 7994,
      "महारा": 7995,
      "चै": 7996,
      "ారామ": 7997,
      "ళ్ల ": 7998,
      "யோக": 7999,
      "మహారా": 8000,
      "து மற்றும் ": 8001,
      "எதிர்ப்ப": 8002,
      "बनाया ": 8003,
      "ஆய்வு ": 8004,
      "विद्यालय": 8005,
      "जल्द ही ": 8006,
      "రస్": 8007,
      "ಲಾಗುತ್ತಿದೆ": 8008,
      "భారతీయ ": 8009,
      "ಸರಕಾರ": 8010,
      "க்கும் மேற்ப": 8011,
      "நண்ப": 8012,
      "விக": 8013,
      "డీ ": 8014,
      "உயர் ": 8015,
      "गठबंध": 8016,
      "आम ": 8017,
      "த்தம் ": 8018,
      "हाल ": 8019,
      "என்று அவர் கூறினார்": 8020,
      "సామా": 8021,
      "ஸ்ம": 8022,
      "நன்க": 8023,
      "பல்வேறு ": 8024,
      "ர்ச்சிய": 8025,
      "ತೂ": 8026,
      "ಗಳ ": 8027,
      "विक ": 8028,
      "ந்திர ": 8029,
      "ఎంపిక": 8030,
      "மட்டுமல்ல": 8031,
      "पिछले ": 8032,
      "అటువంటి ": 8033,
      "ఎమ్": 8034,
      "இதுவரை ": 8035,
      "अति": 8036,
      "ಸಾಗ": 8037,
      "இருக்க வேண்டும்": 8038,
      "ఈ చిత్రానికి ": 8039,
      "निका": 8040,
      "आई ": 8041,
      "ेंद्र ": 8042,
      "విదేశ": 8043,
      "ದಲ್ಲಿರುವ": 8044,
      "रवि": 8045,
      "சக்த": 8046,
      "ಬಿಟ್ಟ": 8047,
      "కానీ అది ": 8048,
      "यह सब ": 8049,
      "नय": 8050,
      "ಾನೂನು ": 8051,
      "नगर ": 8052,
      "ನಲ್ಲ": 8053,
      "ங்களின் ": 8054,
      "வழிவக": 8055,
      "दूसरे ": 8056,
      "ప్రయోజనం ": 8057,
      "आइए ": 8058,
      "लब ": 8059,
      "ணிய": 8060,
      "ைத": 8061,
      "ಿಸಿಲ್ಲ": 8062,
      "ర్ప": 8063,
      "ಾಯ್": 8064,
      "దారితీ": 8065,
      "ओं में ": 8066,
      "सम्मान": 8067,
      "శం": 8068,
      "ಪ್ರಸ್ತ": 8069,
      "ಎಚ್": 8070,
      "சுகாதார": 8071,
      "పోలీస్ స్టేషన్లో కేసు నమోదైంది": 8072,
      "ఆందోళన ": 8073,
      "नम": 8074,
      "த்துவ": 8075,
      "ಕರೆ": 8076,
      "కాలేదు": 8077,
      "आसान ": 8078,
      "भर": 8079,
      "ஏழ": 8080,
      "ಉಳಿದ": 8081,
      "இது மிகவும் ": 8082,
      "ಕೆಲಸ ಮಾಡ": 8083,
      "துணை ": 8084,
      "ಅತ್ಯಂತ": 8085,
      "आद": 8086,
      "రాత్ర": 8087,
      "தலைமை ": 8088,
      "ಿತಾಂಶ": 8089,
      "ುತ್ತಿತ್ತು": 8090,
      "சென்ற": 8091,
      "ఉద్దేశ": 8092,
      " ಮಾತು": 8093,
      "पहच": 8094,
      "उद्देश": 8095,
      "வரி ": 8096,
      "वित ": 8097,
      "சாப்பிட": 8098,
      "తండ్రి ": 8099,
      "హత్య": 8100,
      "ప్రధ": 8101,
      "్ల ": 8102,
      " ಹಲ": 8103,
      "நம": 8104,
      "ಪರಿಗಣ": 8105,
      "ణి ": 8106,
      "ಒದಗ": 8107,
      "ఈ ఘట": 8108,
      "देश के ": 8109,
      "्रीय": 8110,
      "వారిలో ": 8111,
      "ఆసక్": 8112,
      "कई ": 8113,
      "நூ": 8114,
      "ువ": 8115,
      "కొను": 8116,
      "ಪ್ರಧಾನಿ ನ": 8117,
      "ಕೋರ್ಟ್": 8118,
      "ణా ": 8119,
      "మెంట్ ": 8120,
      "మతి ": 8121,
      "ता के ": 8122,
      "पर्य": 8123,
      "ுடும்ப": 8124,
      "ట్వీ": 8125,
      "जारी क": 8126,
      "యోజక": 8127,
      "ఇంత": 8128,
      "ಮಹ": 8129,
      "ಸೇರ": 8130,
      "నియోజక": 8131,
      "2019 ": 8132,
      "शिक्षा ": 8133,
      "ொறுப்ப": 8134,
      "னர் ": 8135,
      "அர்த்த": 8136,
      "ाया गया है": 8137,
      "21": 8138,
      "సుమారు ": 8139,
      "ति के ": 8140,
      "వర్త": 8141,
      "க் கூட": 8142,
      "स्ट्रे": 8143,
      "ಚಿಕಿತ್ಸೆ ": 8144,
      "पत्र": 8145,
      "பெண": 8146,
      "త్తు ": 8147,
      "ಹಾಗಾಗಿ ": 8148,
      "हा जाता है": 8149,
      "காங்கிரஸ் தலை": 8150,
      "హా ": 8151,
      "वाल": 8152,
      "ங்கள் உள்ளன": 8153,
      "చిపెట్ట": 8154,
      "ಎಂಬುದು ": 8155,
      "ప్రయత్నించ": 8156,
      "த் தொடங்க": 8157,
      "ஜெ": 8158,
      "ಫೋಟ": 8159,
      "िकार": 8160,
      "ியுள்ள": 8161,
      "ಸ್ತಕ": 8162,
      "शब्द": 8163,
      "ம்ச": 8164,
      "చేస్తారు": 8165,
      "ఇది ఒక ": 8166,
      "ஆனால் ப": 8167,
      " முயற்ச": 8168,
      "அவள் ": 8169,
      "சிறப்ப": 8170,
      "அழுத்த": 8171,
      "आवश्यकता है": 8172,
      "करोड़ रुपये": 8173,
      "నాథ్ ": 8174,
      "బృంద": 8175,
      "రికార్": 8176,
      "న్నీ ": 8177,
      "ता से ": 8178,
      "ನಿರ್ಮ": 8179,
      "ವಿದ್ಯಾ": 8180,
      "வெற்றி பெற": 8181,
      "ிக்கிறார்": 8182,
      "भूमिका ": 8183,
      "शुरुआ": 8184,
      "पश्": 8185,
      "ும் இல்லை": 8186,
      "ிவுட": 8187,
      "शादी": 8188,
      "இருந்தார்": 8189,
      "స్నేహిత": 8190,
      "னில் ": 8191,
      "ாது என்று ": 8192,
      "ನೀನು ": 8193,
      "వైపు ": 8194,
      "ును ": 8195,
      "மாக இருந்தது": 8196,
      "वरण": 8197,
      "ప్రార్థ": 8198,
      "ஆம் ஆண்ட": 8199,
      "ு மற்றும் ": 8200,
      "ಪರಿಣಾಮ": 8201,
      "शर्म": 8202,
      "राज्य में ": 8203,
      "కొనుగో": 8204,
      "आदेश ": 8205,
      "ஆவ": 8206,
      "ிறார்கள்": 8207,
      " ಬಹ": 8208,
      "दी गई है": 8209,
      "தெல": 8210,
      "నియంత్ర": 8211,
      "నిజంగా ": 8212,
      "எனக்க": 8213,
      "ாட் க": 8214,
      "என்ஜ": 8215,
      "ರೈತ": 8216,
      "ఎదురు": 8217,
      "ನಿರೀಕ್ಷ": 8218,
      "गया और ": 8219,
      "సామర్థ": 8220,
      "திப்ப": 8221,
      "ூர்வ": 8222,
      "ಇಂಗ್": 8223,
      "इस तरह की ": 8224,
      "ఉద్యోగ": 8225,
      "சம்ப": 8226,
      "బే": 8227,
      "ர்களை ": 8228,
      "దేశంలో ": 8229,
      "நிதி ": 8230,
      " ಬಿಜೆಪಿ ": 8231,
      "స్ట్రే": 8232,
      " ಸ್ವ": 8233,
      "सीट": 8234,
      "फिर भी ": 8235,
      " ಕೊಹ್": 8236,
      "ने के बाद ": 8237,
      "த் துற": 8238,
      "तरीके ": 8239,
      "िज": 8240,
      "ಎಷ್ಟು ": 8241,
      "ೌಲ್ಯ": 8242,
      "ுவாச": 8243,
      "हो गया": 8244,
      "पत्नी ": 8245,
      "सदस्य": 8246,
      "ఇక్క": 8247,
      "జా ": 8248,
      "ರಳ": 8249,
      "ிகள் க": 8250,
      "இதய": 8251,
      "ಪುನ": 8252,
      "முறைய": 8253,
      "ನ್ಯೂ": 8254,
      "సోషల్ ": 8255,
      "రచ": 8256,
      "వయ": 8257,
      "ಷೇ": 8258,
      "ಬಂದಿದೆ": 8259,
      "தற்கு ": 8260,
      "स्त ": 8261,
      " ನಗರ": 8262,
      "ికంగా ": 8263,
      "ಬಿಐ": 8264,
      "ிக்கப்பட்டது": 8265,
      "ఈ రోజు ": 8266,
      "मार्ट": 8267,
      "కార్యదర్శ": 8268,
      "अध्यय": 8269,
      "పడిన ": 8270,
      "ವಶ": 8271,
      "ఆయనకు ": 8272,
      " பட": 8273,
      "రేషన్ ": 8274,
      "ಅವಳ": 8275,
      "ಪೂರ್ವ": 8276,
      "రాష్ట్రంలో ": 8277,
      " ಮಂಡ": 8278,
      "పెట్రో": 8279,
      "ಗಾಯಗೊಂಡ": 8280,
      "रोग": 8281,
      "எப்பட": 8282,
      "ఇబ్బ": 8283,
      " ಪೊಲೀಸ್ ": 8284,
      "ிடம் க": 8285,
      "ஒப்பந்த": 8286,
      "ஜா": 8287,
      "மஹ": 8288,
      "బి ": 8289,
      "వల ": 8290,
      "ತಯಾರ": 8291,
      "పిక ": 8292,
      "தனி": 8293,
      " ಘಟ": 8294,
      "ल से ": 8295,
      "ಘ್ರ": 8296,
      "చేయలేదు": 8297,
      "పుణ": 8298,
      "ಹೇಗೆ ": 8299,
      "मन ": 8300,
      "ం లేదు": 8301,
      "ರಾಟ್": 8302,
      "ಕೆ ಮಾಡ": 8303,
      "డానికి": 8304,
      "ங்களிலும் ": 8305,
      "ட் ": 8306,
      "ூண்ட": 8307,
      " का एक ": 8308,
      "देता है": 8309,
      "पेट्रो": 8310,
      "சதவீத": 8311,
      "అంచ": 8312,
      "ಳವ": 8313,
      "ிக்கெட் ": 8314,
      "தலைவர் ": 8315,
      "कुमार": 8316,
      "శరీ": 8317,
      "ರಿತ": 8318,
      "దీన్ని ": 8319,
      "न्नड़": 8320,
      "ಕೂಲ": 8321,
      "ை மற்றும் ": 8322,
      "வேன்": 8323,
      "ಶಾಂತ": 8324,
      " सकते हैं": 8325,
      "నిందితు": 8326,
      "సాంకే": 8327,
      "பாட்ட": 8328,
      "पर क": 8329,
      " ವೆ": 8330,
      "ோம் என்று ": 8331,
      "ಭ್ರ": 8332,
      "बीमार": 8333,
      "்ஸ் ": 8334,
      "மைப்ப": 8335,
      "స్టే": 8336,
      "ತಿಯಲ್ಲಿ ": 8337,
      "அப்படியான": 8338,
      "உட்பட": 8339,
      "वरिष्ठ ": 8340,
      "ಫಿ": 8341,
      "த்தில": 8342,
      "ಿತರ": 8343,
      "सार ": 8344,
      "కరణ ": 8345,
      "मॉड": 8346,
      "तला": 8347,
      "शू": 8348,
      "ಗಂಭೀರ": 8349,
      "वाण": 8350,
      "పోష": 8351,
      "ಿಗೂ ": 8352,
      "ಸೆಲ್": 8353,
      "ಳುಹ": 8354,
      "125 ": 8355,
      "ಯುಕ್ತ": 8356,
      "पालन": 8357,
      "ఆకర్": 8358,
      "ం నుండి ": 8359,
      "ಿಸಿರುವ": 8360,
      "పుస్త": 8361,
      "ுக்குப் ப": 8362,
      "वृद्धि ": 8363,
      "అసెంబ": 8364,
      "ಸ್ಕರ": 8365,
      "விசுவாச": 8366,
      "मतलब ": 8367,
      "छोड़": 8368,
      "అసెంబ్ల": 8369,
      "दारी ": 8370,
      "प्रार्थ": 8371,
      "కేట": 8372,
      "ுக் கொள்ள": 8373,
      "ீழ் ": 8374,
      "तहत ": 8375,
      "నది ": 8376,
      "ಪತ್ತ": 8377,
      "ప్రై": 8378,
      "ವಿಷಯ": 8379,
      "मामले ": 8380,
      "కూడిన ": 8381,
      "ಒಟ್ಟು ": 8382,
      " ಪ್ರಮುಖ": 8383,
      "चे ": 8384,
      "ये": 8385,
      "ూహ": 8386,
      "ுமையாக ": 8387,
      "క్లి": 8388,
      "ುವುದನ್ನು ": 8389,
      "ನೆರ": 8390,
      "प्रबंध": 8391,
      "పోవ": 8392,
      "छोड़ ": 8393,
      "ஷ்டிர": 8394,
      "ಪರಿಶೀಲ": 8395,
      "త్మక ": 8396,
      "पसंद": 8397,
      "ंड ": 8398,
      " ಬೆಳ": 8399,
      "ग्रामी": 8400,
      "దర్శకత్వం ": 8401,
      "ा ने ": 8402,
      "స్తాడు": 8403,
      "నేపథ": 8404,
      " ಸಮಸ್ಯೆ": 8405,
      "ಲುಪ": 8406,
      "வலிய": 8407,
      "ுச் சென்ற": 8408,
      "ఖచ్చితంగా ": 8409,
      "ಪ್ರಿಯ": 8410,
      "बात है": 8411,
      "दिख": 8412,
      " स्प": 8413,
      "మార్చ": 8414,
      "ಹೇಗೆ": 8415,
      "சம்பவ இட": 8416,
      "ದಲ್ಲಿ ಅ": 8417,
      "அரசியல் ": 8418,
      "அவர் தனது ": 8419,
      "मैच ": 8420,
      "ுகள் மற்றும் ": 8421,
      "न किया": 8422,
      "बदला": 8423,
      "ಎಂಬುದನ್ನು ": 8424,
      "घर": 8425,
      "ேற்க": 8426,
      "ఎల్ల": 8427,
      "ಸಾಮಾಜಿಕ": 8428,
      "ಸುಲಭ": 8429,
      "ूठ": 8430,
      "ப்ர": 8431,
      "ங்கள் ம": 8432,
      "காத": 8433,
      "విధాన": 8434,
      "டெஸ்ட": 8435,
      " ಎರಡು ": 8436,
      "विराट": 8437,
      "कों को ": 8438,
      "रन ": 8439,
      "அவரை ": 8440,
      "ों द्वारा ": 8441,
      "த்தில் உள்ள ": 8442,
      "విరాట్ ": 8443,
      "ధీ": 8444,
      "ிராம": 8445,
      "నూ": 8446,
      "ಬರ್": 8447,
      "ों के लिए": 8448,
      "இந்த விஷய": 8449,
      "ಬೆಳ": 8450,
      "கர்நாடக": 8451,
      "बारे में क": 8452,
      "23 ": 8453,
      "కఠ": 8454,
      "మిగిలి": 8455,
      "రూపొంద": 8456,
      "யோச": 8457,
      "வேலை": 8458,
      "மாதிர": 8459,
      "ಧ್ಯಯನ": 8460,
      "सुरक्ष": 8461,
      "பயிற்ச": 8462,
      "ఆటగా": 8463,
      "ನ್ವಯ": 8464,
      "म और ": 8465,
      "ಯಾಕೆ ": 8466,
      "సరైన ": 8467,
      "ಒಳ್ಳೆಯ": 8468,
      "நன்": 8469,
      "ಧಿ": 8470,
      "ು ಮಾಡ": 8471,
      "ப்படும் என்று ": 8472,
      "కింద ": 8473,
      "కెమె": 8474,
      "आरोपी": 8475,
      "ೋರ್ಟ್": 8476,
      "மிய": 8477,
      "ణలు ": 8478,
      "ಮ್ಯಾ": 8479,
      "ಿಸಿತ್ತು": 8480,
      "ರಾದ": 8481,
      "ೂೕಗ": 8482,
      "व्यवस्थ": 8483,
      "प्रतिशत ": 8484,
      "ಭಾರತದ ": 8485,
      "జీవితం ": 8486,
      "क की ": 8487,
      "ைச்ச": 8488,
      "నటి ": 8489,
      "బడు": 8490,
      "ராண": 8491,
      "తీయ": 8492,
      "அந்த": 8493,
      "அற்ப": 8494,
      "ನ್ನಿ": 8495,
      "இதைப் பற்றி ": 8496,
      "ాలుగా ": 8497,
      "बय": 8498,
      "కౌ": 8499,
      "लेक्": 8500,
      "ரீதிய": 8501,
      " ರೀತಿ ": 8502,
      "विधायक ": 8503,
      "சமா": 8504,
      "ீவ": 8505,
      "తల": 8506,
      "ಚಂದ್ರ": 8507,
      "ಟ್ವೀ": 8508,
      "ுவதாக ": 8509,
      "ರನ್": 8510,
      "ాలోని ": 8511,
      "होने ": 8512,
      "పిస్తుంది": 8513,
      "మరి": 8514,
      "ಿಯಾಗಿದೆ": 8515,
      "प्रकार": 8516,
      "क्ष ": 8517,
      "தமர் ": 8518,
      "लॉन्च": 8519,
      "ஆராய": 8520,
      "திரு": 8521,
      "ంగు": 8522,
      "ಪರೀಕ್ಷ": 8523,
      " ಸೈ": 8524,
      "நீர் ": 8525,
      "ంలోకి ": 8526,
      "राज्य के ": 8527,
      "ಸಭೆ ": 8528,
      "అడు": 8529,
      "తుందని ": 8530,
      "हाल ही ": 8531,
      " ಸಿಗ": 8532,
      "సంప్రద": 8533,
      " ಜಾ": 8534,
      "घायल हो ": 8535,
      "தற்போது ": 8536,
      "வைத் தேர்த": 8537,
      "சர்வதேச": 8538,
      "ன்கள் ": 8539,
      " ಮಧ್ಯ": 8540,
      "ನೀರು ": 8541,
      "స్థాయి": 8542,
      " ಗ್ರಾ": 8543,
      "ಯೋಚ": 8544,
      "கிறிஸ்த": 8545,
      "తృ": 8546,
      " ಸೇರಿದಂತೆ ": 8547,
      "ೇರಳ": 8548,
      "योजना ": 8549,
      "ందరగోళ": 8550,
      "గందరగోళ": 8551,
      "नाथ": 8552,
      "ரிப்ப": 8553,
      "कर्नाट": 8554,
      "आपने ": 8555,
      "2:": 8556,
      "ಸತ್ಯ": 8557,
      "గుజ": 8558,
      "ಿದ್ದಾರೆ ಎಂದು ": 8559,
      "गुजरा": 8560,
      "ாட் கோல": 8561,
      "शर्": 8562,
      " ಮಾತ್ರ": 8563,
      "मैं क": 8564,
      "गृ": 8565,
      "े पर ": 8566,
      "ಿಸುತ್ತಾರೆ": 8567,
      "ಗೊಂಡಿದೆ": 8568,
      "है जो ": 8569,
      "భూమి": 8570,
      "ஆட்ச": 8571,
      "షా ": 8572,
      "వాతా": 8573,
      "நாள் ": 8574,
      "மையை ": 8575,
      "రెండవ ": 8576,
      "మాని": 8577,
      "వాతావర": 8578,
      "ह के ": 8579,
      "శె": 8580,
      "விராட் கோல": 8581,
      "खिलाफ": 8582,
      "प्राथ": 8583,
      "கூறப்படுகிறது": 8584,
      "క్రికెట్ ": 8585,
      "್ರಿ": 8586,
      " ಕುಮಾರ": 8587,
      "மைக்க": 8588,
      "ಕೇ": 8589,
      "ಟೇ": 8590,
      "ప్రణా": 8591,
      "ுக்கிய": 8592,
      "ிகர": 8593,
      "एक और ": 8594,
      "मारो": 8595,
      "உயிரிழ": 8596,
      "ருத்துவமனையில் அனுமதிக்கப்பட்ட": 8597,
      "ప్రణాళ": 8598,
      "కరి": 8599,
      "ನೈ": 8600,
      "అనుభవ": 8601,
      "కమైన ": 8602,
      "ೆಸ್ಟ್": 8603,
      "मौत ": 8604,
      "కృష్": 8605,
      "रही हैं": 8606,
      "லைக்கழ": 8607,
      "विराट कोह": 8608,
      "న్ల ": 8609,
      "చేయబడింది": 8610,
      " —⁠ ": 8611,
      "யார்": 8612,
      "ంచె": 8613,
      " ದಿ": 8614,
      "ी का ": 8615,
      "வது ": 8616,
      "ಖ್ಯಾ": 8617,
      "नाय": 8618,
      "లాది ": 8619,
      "ஷ்ண": 8620,
      "3.": 8621,
      "கிள": 8622,
      "దాడి ": 8623,
      "త్తగా ": 8624,
      "डालें": 8625,
      "తయారు ": 8626,
      "पृथ": 8627,
      " ಯಾವುದೇ": 8628,
      "26 ": 8629,
      "வ்": 8630,
      "ಹೊಂದಿದೆ": 8631,
      "కుటుంబ ": 8632,
      "எச்சர": 8633,
      "చంద్ర": 8634,
      "రమైన ": 8635,
      "ಂಸ": 8636,
      " ಹಂತ": 8637,
      "ிகளும் ": 8638,
      "నాలుగు ": 8639,
      "உற்பத்தி ": 8640,
      "వికె": 8641,
      "ಸಾಹ": 8642,
      "2019": 8643,
      "அனைவருக்கும் ": 8644,
      "ಬಯಸ": 8645,
      "मौत हो गई": 8646,
      "ாவற்ற": 8647,
      "शेट्ट": 8648,
      "எதுவும் இல்லை": 8649,
      "விளையாட": 8650,
      "గుజరా": 8651,
      "भ्र": 8652,
      "கருத்த": 8653,
      "విరు": 8654,
      " ಮಾಹಿತ": 8655,
      "సంఘ": 8656,
      " ತರ": 8657,
      "ுகளுக்கு ": 8658,
      " कर दिया है": 8659,
      "्यकर्": 8660,
      "ுழுவ": 8661,
      " सिंह ": 8662,
      "ரின் ": 8663,
      "விற்ப": 8664,
      "ఉంది ": 8665,
      "ాంత": 8666,
      "ಎಚ್ಚರ": 8667,
      "ந்துர": 8668,
      "అదు": 8669,
      "జట్టు": 8670,
      "உணவ": 8671,
      "स्वास्थ्य": 8672,
      "प्रयास": 8673,
      "ఆసుపత్రికి తరల": 8674,
      "విరాట్ కోహ్ల": 8675,
      "பார்க்க": 8676,
      "திரும்ப": 8677,
      "அவர்களை ": 8678,
      "ಾದ್ಯ": 8679,
      "చారం ": 8680,
      "செயல்பட": 8681,
      "दिखाई ": 8682,
      "आर्थ": 8683,
      "ுவிட்ட": 8684,
      "अधिकां": 8685,
      "அழக": 8686,
      "పరిష్కరించ": 8687,
      "40": 8688,
      "ధి": 8689,
      "ಉದಾಹರಣ": 8690,
      "ாக உள்ளது": 8691,
      "ேட்க": 8692,
      "रं": 8693,
      "ைத் தவிர": 8694,
      "पैद": 8695,
      "इसके अलावा ": 8696,
      "शिकायत दर्ज": 8697,
      "இன்ற": 8698,
      "್ರಹ": 8699,
      " ಪಡೆಯ": 8700,
      "సమీప": 8701,
      "ఆశ": 8702,
      "ಂತ್ಯ": 8703,
      "ರಚ": 8704,
      "దాదా": 8705,
      "इसके बारे में ": 8706,
      "க்கூடாது": 8707,
      "ஞான": 8708,
      " ಮಹ": 8709,
      "ितना ": 8710,
      "ಬೆಂಬಲ": 8711,
      "குறித்த": 8712,
      "పూర్వ": 8713,
      "ராஜின": 8714,
      "ते हैं और ": 8715,
      "जिन्हों": 8716,
      "धि": 8717,
      "விரு": 8718,
      "కొంద": 8719,
      " பல": 8720,
      "வீழ": 8721,
      "ాల నుండి ": 8722,
      "முதலமை": 8723,
      "गए थे": 8724,
      "मनु": 8725,
      "ಣಿ ": 8726,
      "भाग ले": 8727,
      "తొలి ": 8728,
      "ट्रे": 8729,
      "ண்க": 8730,
      "ಬಣ್ಣ": 8731,
      " ಪಡೆ": 8732,
      "ிடைத்த": 8733,
      "सुन": 8734,
      "बैंक ": 8735,
      "ಇನ್ನೂ ": 8736,
      "தற்காக ": 8737,
      "అరెస్టు చేశారు": 8738,
      "महाराष्ट": 8739,
      "2,": 8740,
      "பிரபல": 8741,
      "ఎంపిక ": 8742,
      " ರೆ": 8743,
      "ಸ್ಥಳೀಯ": 8744,
      "बातची": 8745,
      "శుభ": 8746,
      "दृष्ट": 8747,
      "వ్యక్తం చేశారు": 8748,
      "తొలగించ": 8749,
      "जय ": 8750,
      "ஸ்வ": 8751,
      "ಆತ್ಮ": 8752,
      "ಇತ್ತೀ": 8753,
      "विके": 8754,
      "ताकि ": 8755,
      "ಸಂಸ್ಥ": 8756,
      "నటుడు ": 8757,
      "సంఖ్య ": 8758,
      "अभिनेत्री ": 8759,
      "प्रीम": 8760,
      "ంటి": 8761,
      "வர்த்த": 8762,
      " ಹೇ": 8763,
      " ಭಾಷ": 8764,
      "तमिल": 8765,
      "ళ ": 8766,
      "సన్ ": 8767,
      "ಸಲ": 8768,
      "வர் ம": 8769,
      "ರಾದ ": 8770,
      " ಕುರಿತ": 8771,
      "ಆದಾಗ": 8772,
      "விளையாட்ட": 8773,
      "प्रती": 8774,
      "ವಾಸ್ತ": 8775,
      "देव": 8776,
      " ತಪ್ಪ": 8777,
      "தின": 8778,
      "ನಿರಾ": 8779,
      "మీద ": 8780,
      "எல்லாவற்ற": 8781,
      "దూర": 8782,
      "வீடியோ": 8783,
      "आकर्ष": 8784,
      "चम्म": 8785,
      "புற": 8786,
      "లవ": 8787,
      "ಕರು": 8788,
      "ிறகு": 8789,
      " ಅತ್ಯ": 8790,
      " ಮಾಡುವ": 8791,
      "ஒதுக்கப்பட்டுள்ளது": 8792,
      "ఉపాధ్యాయ": 8793,
      "ंत": 8794,
      "తరువాత": 8795,
      "ऑस्ट्रे": 8796,
      "ారీ ": 8797,
      "ட்டு ": 8798,
      "रास": 8799,
      "ைகள் மற்றும் ": 8800,
      "மனைவ": 8801,
      "అభిప్రాయ": 8802,
      "ಎದುರಿಸ": 8803,
      "మహారాష్ట": 8804,
      "సోషల్ మీ": 8805,
      "నలను ": 8806,
      "ರ್ವ": 8807,
      "న్నాయి": 8808,
      "...": 8809,
      "వైన ": 8810,
      "பயண": 8811,
      "संगी": 8812,
      "ఎల్లప్పుడూ ": 8813,
      "ಏರ": 8814,
      "் தொடர்ப": 8815,
      "அற்புத": 8816,
      "அட்ட": 8817,
      "ஆஸ்திர": 8818,
      "குமார": 8819,
      "ுபாட": 8820,
      "ಫೆ": 8821,
      "स में ": 8822,
      "స్తున్నాను": 8823,
      "उपलब्ध ": 8824,
      "రాలేదు": 8825,
      "क को ": 8826,
      "ப் பிரதேச": 8827,
      "शल मीडिया ": 8828,
      "वर ": 8829,
      "బహి": 8830,
      "లేని ": 8831,
      "हित": 8832,
      "దేశ ": 8833,
      "పురు": 8834,
      "జెడి ఎస్ ": 8835,
      "; ": 8836,
      "ಸವ": 8837,
      "లేము": 8838,
      "ிருஷ்ண": 8839,
      "అవసరమైన ": 8840,
      "ನ್ಯಾಸ": 8841,
      "ಭಿನ್ನ": 8842,
      "త్వరలో ": 8843,
      "त नहीं है": 8844,
      "లేకుండా ": 8845,
      "ுதி ": 8846,
      "संभव ": 8847,
      "ிருந்தது": 8848,
      "నది": 8849,
      " के पास ": 8850,
      "வேல": 8851,
      "एक क": 8852,
      "நிறைய ": 8853,
      "नियम": 8854,
      "క్రింది ": 8855,
      "ಏಕೆ": 8856,
      "ಧು": 8857,
      "ಿಗಳು": 8858,
      "ఇచ్చిన ": 8859,
      "फैस": 8860,
      "అయినప్పటికీ ": 8861,
      "ಬಾದ್": 8862,
      "ఒప్పంద": 8863,
      " किया जाता है": 8864,
      " ನಿರ್ಧಾರ": 8865,
      "ராஜினாம": 8866,
      "Hom": 8867,
      "ध ": 8868,
      "र्य": 8869,
      "सहम": 8870,
      "सचि": 8871,
      "ಸಾರ್ವಜನಿಕ": 8872,
      "ಾಗಿದ್ದ": 8873,
      "ான் க": 8874,
      "కార్యకలా": 8875,
      "తగ్గించ": 8876,
      "बिक": 8877,
      "ఎం ": 8878,
      "ಸಮಾ": 8879,
      " ಸಂತ": 8880,
      "கடுமையான ": 8881,
      "செலவ": 8882,
      " ಅಭಿವೃದ್ಧ": 8883,
      "ುತ್ತಿದ್ದರು": 8884,
      "எதிர்கால": 8885,
      "க்கரண்ட": 8886,
      "నవ": 8887,
      "షె": 8888,
      "ఎదుర్కొ": 8889,
      "ుకోండి": 8890,
      "ஒத்துழ": 8891,
      "ಹಾರಾಷ್ಟ್ರ": 8892,
      "75 ": 8893,
      "కారు": 8894,
      "భవిష": 8895,
      " करने वाले ": 8896,
      "हो गया है": 8897,
      "పిల్లల ": 8898,
      "కేటాయ": 8899,
      "எம் ": 8900,
      "ಪೊಲೀಸ್": 8901,
      "ೇಯ": 8902,
      "ுமான ": 8903,
      "ಿಸ್ಟ": 8904,
      "నెల": 8905,
      "ಶಾಸ್ತ್ರ": 8906,
      "లక్ష్య": 8907,
      "भारत ने ": 8908,
      "डो": 8909,
      "ார்வைய": 8910,
      "் தீ": 8911,
      "ப்பட்டு ": 8912,
      "உறுதிய": 8913,
      "बल्ले": 8914,
      " ದೇವರ": 8915,
      "28 ": 8916,
      "र को ": 8917,
      "ಪದ": 8918,
      "ಸಣ್ಣ": 8919,
      "ಾಂತ": 8920,
      "மர்ச": 8921,
      "लागू": 8922,
      "इस्ती": 8923,
      "पृथ्": 8924,
      "దా ": 8925,
      " ನನ್ನ": 8926,
      "ಾಯೇ": 8927,
      "ंग्रेस के ": 8928,
      "बस": 8929,
      "ಕತೆ ": 8930,
      "तुलना ": 8931,
      "पति": 8932,
      "இன்று ": 8933,
      "ఇవి ": 8934,
      " ಉತ್ತ": 8935,
      "पश्चि": 8936,
      "தங்கள் ": 8937,
      "ఎక్క": 8938,
      "ಸಿನ": 8939,
      "அதன": 8940,
      "ಶ್ಚ": 8941,
      "बैंगलो": 8942,
      "पवि": 8943,
      "் தொ": 8944,
      "ల్స్ ": 8945,
      "தேக்கரண்ட": 8946,
      "ಸಂಭವ": 8947,
      "ಶಿಕ್ಷಣ": 8948,
      "ರಿಗೂ ": 8949,
      "க்கூடிய ": 8950,
      "वर्तमान में ": 8951,
      "து அல்ல": 8952,
      "ता और ": 8953,
      "యూని": 8954,
      "ಳಗಿನ": 8955,
      "ஊழியர்கள": 8956,
      "वीडियो ": 8957,
      "்துறை ": 8958,
      " किसी भी ": 8959,
      "పరమైన ": 8960,
      "అంతర్జాతీయ ": 8961,
      " स्वास्थ": 8962,
      "తులకు ": 8963,
      "ುದ್ರ": 8964,
      "య్యాయి": 8965,
      "ಉಪಸ್ಥಿತರಿದ್ದರು": 8966,
      "భవిష్య": 8967,
      "మాట": 8968,
      "ಎಂದು ಅವರು ": 8969,
      "కాలంలో ": 8970,
      "ष्ण": 8971,
      " ಸಹಾಯ": 8972,
      "श्वर ": 8973,
      "இப்பட": 8974,
      "ಟು ": 8975,
      "ிகள் மற்றும் ": 8976,
      "ಾರ್ಕ್": 8977,
      "ொடுத்த": 8978,
      " किया जाना चाहिए": 8979,
      "ுவதில் ": 8980,
      "ನೀಡಿದ": 8981,
      "அரசாங்கம் ": 8982,
      "दक्षिण ": 8983,
      "आवश्यक ": 8984,
      "S ": 8985,
      "விமர்ச": 8986,
      "ాయే": 8987,
      " ಉದ್ದೇಶ": 8988,
      "दूर ": 8989,
      "చేసుకో": 8990,
      "కలిగి ఉంది": 8991,
      "यहां ": 8992,
      "ఆడ": 8993,
      "ె ": 8994,
      "ಮಧ್ಯ": 8995,
      " ಪತ್ರ": 8996,
      "वर्ग": 8997,
      "అధ్యయ": 8998,
      "ுக் கொண்ட": 8999,
      "భిన్న": 9000,
      "प्रत्येक ": 9001,
      "కొట్ట": 9002,
      "டெல்லி ": 9003,
      "ைத் தொடங்க": 9004,
      "ಜೆ ": 9005,
      "శ్రమ": 9006,
      "வைர": 9007,
      "ಕೋಟಿ ರೂ": 9008,
      "డైరె": 9009,
      "రాజీనా": 9010,
      "बल्लेबा": 9011,
      "ेंगे": 9012,
      "தால் ": 9013,
      "ರಾಗಿ ": 9014,
      "செய்யும் ": 9015,
      "కోవడం ": 9016,
      "తెలిపింది": 9017,
      "ಿಸಲಾಯಿತು": 9018,
      "ఈ క్రింది ": 9019,
      "ல்லூர": 9020,
      "சிபி": 9021,
      "चुनौ": 9022,
      "టేబుల్ ": 9023,
      "రాలు ": 9024,
      "ಹೌ": 9025,
      "స్పూ": 9026,
      "ுகிறோம்": 9027,
      "पहला ": 9028,
      "కార్యకర్": 9029,
      "நடிகை ": 9030,
      "ஏனென்ற": 9031,
      "लोकसभा ": 9032,
      "కుల": 9033,
      "ಧರ್ಮ": 9034,
      "మెల": 9035,
      "याचिक": 9036,
      "చూప": 9037,
      "முழு ": 9038,
      "ರಾಟ್ ಕೊಹ್": 9039,
      "थी ": 9040,
      "रै": 9041,
      "லாக": 9042,
      " ಮೈ": 9043,
      " ಆಹಾರ": 9044,
      "కోవాలని ": 9045,
      "बच्चे": 9046,
      "फोन ": 9047,
      "ुक्त": 9048,
      "జన్": 9049,
      "ర్స్ ": 9050,
      "उनसे ": 9051,
      "గురి": 9052,
      " ತಮ್ಮ": 9053,
      "हमारा ": 9054,
      "அதிகாரி ": 9055,
      "ट्वी": 9056,
      "संबंधित ": 9057,
      "बारिश": 9058,
      "सिक ": 9059,
      "ఆస్ట్రే": 9060,
      "కొంచె": 9061,
      "जिसक": 9062,
      " ಮಾಡಿದ": 9063,
      "ಸ್ಟ್ರೇ": 9064,
      "भारत की ": 9065,
      " ಫಲ": 9066,
      "కర్ణాటక": 9067,
      "ாவல் நிலையத்தில் வழக்கு பதிவு செய்யப்பட்டுள்ளது": 9068,
      "ఆస్ట్రేలి": 9069,
      "పశ్": 9070,
      "ಿಸಲ್ಪಟ್ಟ": 9071,
      "వీడియో ": 9072,
      "ாய் ": 9073,
      " समस": 9074,
      "ष्य": 9075,
      "சும": 9076,
      "பதி ": 9077,
      "ాయ్ ": 9078,
      " ಸಿಬ್ಬಂದ": 9079,
      "డియాలో ": 9080,
      "बल्कि ": 9081,
      "శోధ": 9082,
      "வலியுறுத்த": 9083,
      "தான ": 9084,
      "साय": 9085,
      "మరణించారు": 9086,
      "అమిత్ ": 9087,
      " ಸಮಯದಲ್ಲಿ ": 9088,
      "ಗುರುತ": 9089,
      "ತಕ್ಷಣ": 9090,
      "భారత్": 9091,
      "ಲಕ್ಷ ರೂ": 9092,
      "மன்ன": 9093,
      "நிலையில் ": 9094,
      "చూడండి": 9095,
      "मार्ग": 9096,
      "குஜரா": 9097,
      "23": 9098,
      "फा ": 9099,
      "ा के ": 9100,
      "ஓட்டு": 9101,
      "ரும் ": 9102,
      "ಧಾ": 9103,
      "ைக் கண்ட": 9104,
      "ಬಹುದು ": 9105,
      "हासिल": 9106,
      "Home ": 9107,
      "ஓட்டுந": 9108,
      "ಮಿಯ": 9109,
      "ತಿಂ": 9110,
      "நடித்த": 9111,
      "మిన": 9112,
      "కేర": 9113,
      "उम्मीद ": 9114,
      "విడిచిపెట్ట": 9115,
      "మంచి": 9116,
      "ಸ್ರಾಯೇ": 9117,
      "ஒழ": 9118,
      "ಇಂದ": 9119,
      "ப்பெரிய ": 9120,
      " करती है": 9121,
      "पुस्त": 9122,
      " சிற": 9123,
      "ಜಿನ್": 9124,
      "अमित ": 9125,
      "जल ": 9126,
      "లక్": 9127,
      "ರಿನಲ್ಲಿ ": 9128,
      "हिरास": 9129,
      " ಮಾಜಿ ": 9130,
      "ேரள": 9131,
      "காயமடைந்த": 9132,
      "ట్వీట్ ": 9133,
      "ತ್ರಿ": 9134,
      "ப்பூர்வ": 9135,
      "एक मामला दर्ज किया गया है": 9136,
      "ಮಾಡಲು ": 9137,
      "అనుమత": 9138,
      "ூர் ம": 9139,
      " ದೊಡ್ಡ": 9140,
      "మాట్లాడుతూ": 9141,
      "வான": 9142,
      "ம்ஃ ": 9143,
      "ச்சர் ": 9144,
      "मंजू": 9145,
      "ರಿಂದ ": 9146,
      "ంలోనే ": 9147,
      " कांग्रेस ": 9148,
      "వ్యవసాయ": 9149,
      " ಮಾರುಕಟ್ಟ": 9150,
      "परिणाम": 9151,
      "தெரிவிக்க": 9152,
      "ಸಾಂ": 9153,
      "குதிகளில் ": 9154,
      "வீட்டில் ": 9155,
      "జోడ": 9156,
      "हिस्स": 9157,
      "वच": 9158,
      "ాలపై ": 9159,
      "లేకపో": 9160,
      " ತನಿಖ": 9161,
      "ಮುಖ್ಯಮಂತ್ರಿ ": 9162,
      "पीछे ": 9163,
      "इय": 9164,
      "ధార": 9165,
      "మల": 9166,
      "ಣ್": 9167,
      "ానికి చేరుకు": 9168,
      " ಗೋ": 9169,
      "ட்விட்ட": 9170,
      "ముగ్గురు ": 9171,
      "ता का ": 9172,
      "ಾಗುವ": 9173,
      " ಅಂಶ": 9174,
      "वादी ": 9175,
      "ர் பிர": 9176,
      "தோல்விய": 9177,
      "వెనుక ": 9178,
      "కొంచెం ": 9179,
      "ಅಭಿ": 9180,
      "ೀಡ": 9181,
      " की जाएगी": 9182,
      " ಪೈ": 9183,
      "ा किया": 9184,
      "राम ": 9185,
      " ಮಾಹಿತಿ ": 9186,
      "ம்பர": 9187,
      "ு பேர": 9188,
      "ఇటీవల ": 9189,
      "பிக": 9190,
      "సిం": 9191,
      "భార్య ": 9192,
      "தன் மூலம் ": 9193,
      "ெருக்க": 9194,
      "प्रभाव ": 9195,
      "மேம்படுத்த": 9196,
      "అమెరికా ": 9197,
      "ज के ": 9198,
      "ய்வ": 9199,
      "ఇశ్ర": 9200,
      " करके ": 9201,
      " ವೇ": 9202,
      "ಜೊತೆಗೆ ": 9203,
      "पर्यट": 9204,
      "நேர்": 9205,
      "ಹರಿಸ": 9206,
      "దేశం ": 9207,
      "జారీ ": 9208,
      "ದೃ": 9209,
      "வெளியே ": 9210,
      " ಹಿನ್ನೆ": 9211,
      "உறுப்பினர்கள": 9212,
      "स्वास्थ्य ": 9213,
      "ఈ కార్యక్రమంలో ": 9214,
      "ఇశ్రాయే": 9215,
      "வலை": 9216,
      "నాలను ": 9217,
      "లుగా ": 9218,
      " சொ": 9219,
      "गत ": 9220,
      "ಹೋದ": 9221,
      " स्कू": 9222,
      "కొనుగోలు ": 9223,
      "ಪತಿ ": 9224,
      " ಸಹೋದರ": 9225,
      "ித்துள்ளது": 9226,
      "స్థి": 9227,
      "செய்த ": 9228,
      "ಿಸುತ್ತಿದ್ದಾರೆ": 9229,
      "யன": 9230,
      "ఎ ": 9231,
      "ारे ": 9232,
      "हो गई": 9233,
      "ிக்கப்பட்டுள்ளது": 9234,
      "కన్నడ ": 9235,
      "खान ": 9236,
      "ಮಹಾ": 9237,
      "త్సవ": 9238,
      "కేసులో ": 9239,
      "28": 9240,
      "फी": 9241,
      "இல் ": 9242,
      "மருத்து": 9243,
      " ಪೆ": 9244,
      "ುದು ": 9245,
      "पूर्ण": 9246,
      "இயற்க": 9247,
      "இணைக்க": 9248,
      "ಸಂಸ": 9249,
      "रिकॉर्": 9250,
      "ముఖ ": 9251,
      "కారు ": 9252,
      " ವಿಧ": 9253,
      "हो रही है": 9254,
      "இல்லைய": 9255,
      "ಅಭಿವೃದ್ಧ": 9256,
      "ಿದ್ಧ": 9257,
      " ಕಡಿ": 9258,
      "ாக இருந்தது": 9259,
      "जानी ": 9260,
      "क्या यह ": 9261,
      "எங்கள் ": 9262,
      "ష్ట ": 9263,
      "ಿಗಾಗಿ ": 9264,
      "ट पर ": 9265,
      "ாராஷ்டிர": 9266,
      "तं": 9267,
      "అగ్": 9268,
      "ಣದಲ್ಲಿ ": 9269,
      "சந்தேக": 9270,
      "खा ": 9271,
      "निया": 9272,
      "ఆశ్": 9273,
      "ತೀರ್": 9274,
      "గుండ": 9275,
      "ನೆಗಳ": 9276,
      " காரண": 9277,
      "ின் மக": 9278,
      "చిత్రం ": 9279,
      "ಏನು ಮಾಡ": 9280,
      "बनाए रख": 9281,
      "चंद्र": 9282,
      "ேற்ப": 9283,
      "ಚರಿಸ": 9284,
      "ுகளும் ": 9285,
      "தேர்வு ": 9286,
      " किया जाएगा": 9287,
      "मनो": 9288,
      "ताओं को ": 9289,
      "ட்டுப்படுத்த": 9290,
      "కెప్టెన్ ": 9291,
      "సౌకర్య": 9292,
      "250 ": 9293,
      "खतर": 9294,
      "सवाल ": 9295,
      "ಾಗಿದ್ದಾರೆ": 9296,
      "வரிச": 9297,
      "ಪ್ರಯಾಣ": 9298,
      " ಪ್ರೀ": 9299,
      "அளவ": 9300,
      "ार्व": 9301,
      "ట్రా": 9302,
      "ठीक ": 9303,
      "తగిన ": 9304,
      "దాదాపు ": 9305,
      "तर्": 9306,
      "పత": 9307,
      "்களை ": 9308,
      "ாகவும்": 9309,
      "ிக்க வேண்டும்": 9310,
      "కలప": 9311,
      " ಗುಣ": 9312,
      " ಬೇಡ": 9313,
      "எண்ணிக்கை ": 9314,
      "ஊழிய": 9315,
      "न्यायालय": 9316,
      "కీ ": 9317,
      "ಸೇವ": 9318,
      "ముందు": 9319,
      "पुरु": 9320,
      "இருக்கிறது": 9321,
      "ின் போது ": 9322,
      "ಸಂಪರ್ಕ": 9323,
      "నష్టం ": 9324,
      "నిఖ": 9325,
      "ுக்கொண்ட": 9326,
      "కారం": 9327,
      " ರಚ": 9328,
      "ध्यान": 9329,
      "ಸೂಕ್ತ": 9330,
      "ఇంట్లో ": 9331,
      "प्रिय ": 9332,
      "ஜோ": 9333,
      "ளிப்ப": 9334,
      "ట్లను ": 9335,
      "காங்கிரஸ் க": 9336,
      "ಪ್ರಕರಣ ದಾಖಲ": 9337,
      "हाल ही में ": 9338,
      "चय": 9339,
      "చా": 9340,
      "పంప": 9341,
      "ಧ್ಯಾ": 9342,
      "నివ": 9343,
      "लिक": 9344,
      "మాన్ని ": 9345,
      "ದೇ": 9346,
      "்ச்சி ": 9347,
      "प्पा ": 9348,
      " ಕೊಡ": 9349,
      "ಬಾರಿ ": 9350,
      "ಶೀಘ್ರ": 9351,
      "................": 9352,
      "जिन्होंने ": 9353,
      "யு": 9354,
      "योग ": 9355,
      "ாமல்": 9356,
      "வெளியிட்ட": 9357,
      "ाने का ": 9358,
      "திருமண": 9359,
      " த": 9360,
      "पक": 9361,
      "रॉ": 9362,
      "ುಗಳು ": 9363,
      "ంతరం ": 9364,
      "గుర్తు": 9365,
      "వ్యవస్థ ": 9366,
      "சதவீதம் ": 9367,
      "ता को ": 9368,
      "ர்ஜ": 9369,
      "देंगे": 9370,
      "కూర్చ": 9371,
      "ಫೋನ್": 9372,
      "ாகர": 9373,
      "ವಿತ": 9374,
      "న్నాను": 9375,
      "మెరుగు": 9376,
      "ಿದೆ ಎಂದರು": 9377,
      "நம்பிக்கை ": 9378,
      "आत्मह": 9379,
      "ँच": 9380,
      "बज": 9381,
      "పతి ": 9382,
      "ಅರ್ಜ": 9383,
      "ತೊಡ": 9384,
      "ವ್ ": 9385,
      "போட்டியில் ": 9386,
      "उचित ": 9387,
      "ಡೆ ಮಾಡ": 9388,
      "एक बार ": 9389,
      "గ్రీ": 9390,
      "अच्छे ": 9391,
      "సంబంధించిన ": 9392,
      "विकल्प ": 9393,
      "అద్భుతమైన ": 9394,
      "नक": 9395,
      "ಬದಲ": 9396,
      "ನಿಧ": 9397,
      "వెల్ల": 9398,
      "த்திற்கும் ": 9399,
      "కాబట్టి": 9400,
      "खेल": 9401,
      "புகார் ": 9402,
      "సింగ్": 9403,
      "తిన": 9404,
      "ಠಾಣೆಯಲ್ಲಿ ಪ್ರಕರಣ ದಾಖಲಾಗಿದೆ": 9405,
      "ஆட": 9406,
      "అన్నాడు": 9407,
      "विपक्ष": 9408,
      "ఆలయ": 9409,
      "సిబ్బంది ": 9410,
      "எவ்வளவு ": 9411,
      "கன்னட": 9412,
      "ವಹಾರ": 9413,
      "என்ற க": 9414,
      "ना के ": 9415,
      "ுகள் ப": 9416,
      "यही": 9417,
      "ந்": 9418,
      "யாத": 9419,
      "ೊಮ್ಮೆ ": 9420,
      "ப்பா ": 9421,
      "ಸ್ಟ್ ": 9422,
      "ವ್ಯವಸ್ಥ": 9423,
      "த்திய ": 9424,
      "ப்பேர": 9425,
      "ర్మ ": 9426,
      "ప్రసంగ": 9427,
      "गेंद": 9428,
      "గాంధీ": 9429,
      "ಪ್ರಶ್ನ": 9430,
      "प्रकाश": 9431,
      "ఆకర్ష": 9432,
      "बजा": 9433,
      "ಆಟ": 9434,
      "ಿಕವಾಗಿ ": 9435,
      "ುತ್ತಿವೆ": 9436,
      " ಹೈ": 9437,
      "ವಾಲ್": 9438,
      "ಖಾಸಗ": 9439,
      "పర్యాట": 9440,
      " ಸ್ಥಿತ": 9441,
      "ఖండ": 9442,
      "ೀಕರಣ": 9443,
      "ದೇವರು ": 9444,
      " कुमार ": 9445,
      "एक्स": 9446,
      "ன்ச": 9447,
      "மில்": 9448,
      "ಮಲ": 9449,
      "ಮೂರ್": 9450,
      "प्रशिक्ष": 9451,
      "ாக இருப்ப": 9452,
      "ಇದೊಂದು ": 9453,
      "ன்னை ": 9454,
      "ொழு": 9455,
      "ிக்கப்பட்ட ": 9456,
      "அகற்ற": 9457,
      " ಸಾಮರ್ಥ್ಯ": 9458,
      "ಅಷ್ಟ": 9459,
      "ಮನ್": 9460,
      "ा की": 9461,
      "డియో": 9462,
      " ಪ್ರಶಸ್": 9463,
      "ಟ್ಸ್": 9464,
      "बदल ": 9465,
      "बैठक में ": 9466,
      "தயாரிப்ப": 9467,
      "தெரியவில்லை": 9468,
      "கண்ட": 9469,
      "ಕ್ಟ": 9470,
      "ప్పు ": 9471,
      "వ్యవహ": 9472,
      "புர": 9473,
      "चरण": 9474,
      "ஏற்றுக்க": 9475,
      "ದೊಂದಿಗೆ ": 9476,
      "ాలా": 9477,
      "ड़क ": 9478,
      "జిల్ ": 9479,
      "्षम": 9480,
      "आधार": 9481,
      "ఎవరు": 9482,
      "ीमत ": 9483,
      "நிர்வாக": 9484,
      "மில்லை": 9485,
      "బీ ": 9486,
      "ಿನಿಂದ": 9487,
      "ప్రశం": 9488,
      "ಡೆಗೆ ": 9489,
      "ார் என்று ": 9490,
      "ఉంటారు": 9491,
      "199": 9492,
      "வெளியேற": 9493,
      "विधा": 9494,
      "म्मेल": 9495,
      "बारिश ": 9496,
      "ट के ": 9497,
      "ிச் ச": 9498,
      "ಇವು": 9499,
      " की ओर ": 9500,
      "సిబి": 9501,
      " की आवश्यकता ": 9502,
      "విశ్వవిద్య": 9503,
      "हिरासत में ": 9504,
      "మ్యూ": 9505,
      "क्षण": 9506,
      "எதிர்க்க": 9507,
      "ங்கரவாத": 9508,
      "ఫే": 9509,
      "ಹಿರಿಯ": 9510,
      "இங்கே": 9511,
      "जैस": 9512,
      "பிரதமர் நரேந்திர மோடி ": 9513,
      "పురుష": 9514,
      "ஆத": 9515,
      "ಡು ": 9516,
      "ಭದ್ರ": 9517,
      "న్నా": 9518,
      "पुन": 9519,
      "ூரில் ": 9520,
      "ಒಂದೇ": 9521,
      "नागरिक": 9522,
      "आया": 9523,
      "த்தால் ": 9524,
      " ಪೂರ್": 9525,
      " ಅಭ್ಯರ್ಥ": 9526,
      "मुश्": 9527,
      "அவர்கள் க": 9528,
      "అతనికి ": 9529,
      "టేబుల్ స్పూ": 9530,
      "प्रति ": 9531,
      "ఈ మేరకు ": 9532,
      "பாத்திர": 9533,
      "व्यक्त": 9534,
      "ಟ್ರೋಲ್": 9535,
      "எழுத்த": 9536,
      "आत्म": 9537,
      "மருத்துவமன": 9538,
      "నర్": 9539,
      "సము": 9540,
      "ಕೀರ್": 9541,
      "ಷಿ ": 9542,
      "ಸುಪ್ರೀಂ": 9543,
      "తల్లి ": 9544,
      "రాహుల్ గాంధీ ": 9545,
      "సుప్రీంకోర్టు ": 9546,
      "ಇಂಥ": 9547,
      "ுக்கள் ": 9548,
      "तीसर": 9549,
      "ಬರುವ": 9550,
      "ைச் செய்ய": 9551,
      "ಗೌಡ": 9552,
      "அலுவ": 9553,
      "ஈடுபட்ட": 9554,
      "றை ": 9555,
      "స్తుందని ": 9556,
      "ಸಾವಿರ": 9557,
      "ಂಟ್ ": 9558,
      "நடிகர் ": 9559,
      "పడింది": 9560,
      "స్థానిక ": 9561,
      "ನ್ನು": 9562,
      "ப்பட்ட ப": 9563,
      "ுறிப்ப": 9564,
      "மாநிலத்தில் ": 9565,
      " स्थान": 9566,
      "ాల్సిన అవసరం లేదు": 9567,
      "ఫ్ట": 9568,
      "ಂಕಾ": 9569,
      "விட்டு ": 9570,
      "ओं की ": 9571,
      "ೇಶ್ ": 9572,
      "పవి": 9573,
      "లేక": 9574,
      "அறிக": 9575,
      "ಹಾಜ": 9576,
      "జరుపు": 9577,
      "ிது ": 9578,
      "ने और ": 9579,
      "ம் உள்ளது": 9580,
      "म है": 9581,
      "అవగా": 9582,
      "రాజ్య": 9583,
      "జరిగాయి": 9584,
      "ಮೇಲೆ ": 9585,
      "அனுபவ": 9586,
      "చదవండి": 9587,
      "श्रृंखला ": 9588,
      "అవగాహ": 9589,
      "अब": 9590,
      "ೃತ್ವ": 9591,
      "நான் ம": 9592,
      "టార్": 9593,
      "ಔಷ": 9594,
      "్యాంగ": 9595,
      " ಶು": 9596,
      "ுகள் உள்ளன": 9597,
      "ಸಭೆಯಲ್ಲಿ ": 9598,
      "शहर ": 9599,
      "ರಂಗ": 9600,
      " ಸಲ": 9601,
      "ముస్": 9602,
      "உயர்ந்த": 9603,
      "डर ": 9604,
      "ఇంగ": 9605,
      "ీయ ": 9606,
      "మాప": 9607,
      "ाने की ": 9608,
      "इंजन ": 9609,
      "ಈ ಸಂಬಂಧ": 9610,
      "உண்மையான ": 9611,
      "मुंबई ": 9612,
      "मना": 9613,
      "ಆಸ್ಪತ್ರೆಗೆ ": 9614,
      "ಮದುವ": 9615,
      "ವೋ": 9616,
      "த்துடன் ": 9617,
      "துக": 9618,
      "அவர் ஒரு ": 9619,
      "ೀರಾ": 9620,
      "ಟ್ಟಿನಲ್ಲಿ ": 9621,
      "्य है": 9622,
      "प्तान ": 9623,
      "27": 9624,
      "ईसा": 9625,
      "ஆச்ச": 9626,
      " ಸಿಂಗ್ ": 9627,
      "స్వామి ": 9628,
      "उसका ": 9629,
      "యే ": 9630,
      "ಕಳುಹ": 9631,
      "इस्रा": 9632,
      "ைப் பார்க்க": 9633,
      "्राष्ट": 9634,
      "ிபி ": 9635,
      "अंतर्राष्ट": 9636,
      "ಾದ್ಯಂತ": 9637,
      "झा": 9638,
      "ూర్ ": 9639,
      "ಭಾರೀ": 9640,
      "गुण": 9641,
      "ுச் செல்ல": 9642,
      "పనులు ": 9643,
      "ನಿಂತ": 9644,
      "கிர்": 9645,
      "நியாய": 9646,
      "కలు ": 9647,
      "ತಕ್ಕ": 9648,
      "ಹೂ": 9649,
      "ಬ್ಬರು ": 9650,
      "కుమారుడు ": 9651,
      "आरोप लग": 9652,
      "వాస్తవ": 9653,
      "ష్య": 9654,
      "ಲ್ಕ": 9655,
      " ಪಡೆದ": 9656,
      "ைகள் க": 9657,
      "ಆದರೆ ಈ": 9658,
      "నిజమైన ": 9659,
      "అసెంబ్లీ ": 9660,
      "मुश्कि": 9661,
      "மருத்துவ": 9662,
      "ஷெட்ட": 9663,
      "ಬಿದ್ದ": 9664,
      "ವಲ": 9665,
      "த்தின் த": 9666,
      "ந்துக": 9667,
      "ம் என்ன": 9668,
      "प्रस्ता": 9669,
      "ఉండదు": 9670,
      "కథ ": 9671,
      "ಚೀನಾ": 9672,
      "2018 ": 9673,
      "பிரதமர் ம": 9674,
      "డిమాండ్ చేశారు": 9675,
      "நிறைவேற்ற": 9676,
      "ಆದಾಗ್ಯೂ": 9677,
      "வந்தது": 9678,
      "ం ఉంది": 9679,
      "वाह ": 9680,
      "ಬೆಳೆ": 9681,
      "पहले से ": 9682,
      "சூழ்": 9683,
      "మిమ్మల్ని ": 9684,
      "ಿಕೆಟ್ ": 9685,
      "ಕಂಡು": 9686,
      "நாத": 9687,
      "दिल": 9688,
      "చివరి ": 9689,
      "ಪರಿಹಾರ": 9690,
      "खुश ": 9691,
      "भुगतान": 9692,
      " ನಾವು ": 9693,
      "प्रचार": 9694,
      "స్తా": 9695,
      "క్షన్ ": 9696,
      "இதன் ": 9697,
      " ಹೇಳಿದ್ದಾರೆ": 9698,
      "ज्ञान ": 9699,
      "ಅದರಲ್ಲಿ ": 9700,
      "நீங்கள் ப": 9701,
      "தெரிவித்தார்": 9702,
      "దొరక": 9703,
      "हुआ था": 9704,
      "ாவல்துறைய": 9705,
      "उच्च": 9706,
      "वॉ": 9707,
      "ஃ ப": 9708,
      "స్వామి": 9709,
      "జరగలేదు": 9710,
      "மழை ": 9711,
      "ಬೇಕು": 9712,
      "यर ": 9713,
      "ஷ் க": 9714,
      "ಾಗಿತ್ತು": 9715,
      "ாகத் த": 9716,
      "ர்மா ": 9717,
      "ಂಡರ್": 9718,
      "ுவது": 9719,
      "ிற்கும் ": 9720,
      "టును ": 9721,
      "మొదట ": 9722,
      "స్వాధీ": 9723,
      "ஏற்பட்டது": 9724,
      "పించింది": 9725,
      "ಶಯ": 9726,
      "ங்களையும் ": 9727,
      "ாவட்ட": 9728,
      "ிடையே ": 9729,
      "మొదటి": 9730,
      " ಹಾಕ": 9731,
      "ஊடகங்களில் ": 9732,
      "सामना करना ": 9733,
      "प्रतिक्रिया ": 9734,
      "45 ": 9735,
      "అందుకు": 9736,
      "ఫోటో": 9737,
      "ప్రదేశ్ ": 9738,
      "அடிக்க": 9739,
      "ರೊ": 9740,
      " की तरह ": 9741,
      "పోస్ట": 9742,
      " ಜಾಲ": 9743,
      " ನಿಮ್ಮ": 9744,
      "రాజు ": 9745,
      "எதிராக ": 9746,
      "ओं का ": 9747,
      "లోక్సభ ": 9748,
      "வருமாற": 9749,
      " की जांच": 9750,
      "స్తూ ": 9751,
      "ा करने के लिए ": 9752,
      "பொருளாதார": 9753,
      "मेरी ": 9754,
      "प्रश्": 9755,
      "విద్యు": 9756,
      "ಶಿಷ್ಟ": 9757,
      "ஆயிர": 9758,
      "ప్రైవే": 9759,
      "आवेद": 9760,
      " के बीच ": 9761,
      "ಿಸುವುದಿಲ್ಲ": 9762,
      "लेकर ": 9763,
      "ಶ್ಚಿ": 9764,
      "ನೆ ನಡೆಸ": 9765,
      "தால்": 9766,
      "அமித் ஷ": 9767,
      "प्रतिबंध": 9768,
      "ஆவார்": 9769,
      "वहाँ": 9770,
      "்ஜ": 9771,
      "ుగ": 9772,
      " ಸಾಲ": 9773,
      "विचार ": 9774,
      "ంటారు": 9775,
      " ಆರ್": 9776,
      "ித்துவ": 9777,
      "ಎಂದು ಹೇಳಿದರು": 9778,
      "அவ்வ": 9779,
      "వీటి": 9780,
      "எழுப்ப": 9781,
      "ನನ್ನನ್ನು ": 9782,
      "அரசியலமை": 9783,
      "நியூ": 9784,
[...]
